{
  "version": "1.0",
  "truncation": null,
  "padding": null,
  "added_tokens": [
    {
      "id": 0,
      "content": "[UNK]",
      "single_word": false,
      "lstrip": false,
      "rstrip": false,
      "normalized": false,
      "special": true
    },
    {
      "id": 1,
      "content": "[PAD]",
      "single_word": false,
      "lstrip": false,
      "rstrip": false,
      "normalized": false,
      "special": true
    },
    {
      "id": 2,
      "content": "[CLS]",
      "single_word": false,
      "lstrip": false,
      "rstrip": false,
      "normalized": false,
      "special": true
    },
    {
      "id": 3,
      "content": "[SEP]",
      "single_word": false,
      "lstrip": false,
      "rstrip": false,
      "normalized": false,
      "special": true
    },
    {
      "id": 4,
      "content": "[MASK]",
      "single_word": false,
      "lstrip": false,
      "rstrip": false,
      "normalized": false,
      "special": true
    }
  ],
  "normalizer": {
    "type": "BertNormalizer",
    "clean_text": true,
    "handle_chinese_chars": true,
    "strip_accents": false,
    "lowercase": false
  },
  "pre_tokenizer": {
    "type": "Whitespace"
  },
  "post_processor": {
    "type": "TemplateProcessing",
    "single": [
      {
        "SpecialToken": {
          "id": "[CLS]",
          "type_id": 0
        }
      },
      {
        "Sequence": {
          "id": "A",
          "type_id": 0
        }
      },
      {
        "SpecialToken": {
          "id": "[SEP]",
          "type_id": 0
        }
      }
    ],
    "pair": [
      {
        "SpecialToken": {
          "id": "[CLS]",
          "type_id": 0
        }
      },
      {
        "Sequence": {
          "id": "A",
          "type_id": 0
        }
      },
      {
        "SpecialToken": {
          "id": "[SEP]",
          "type_id": 0
        }
      },
      {
        "Sequence": {
          "id": "B",
          "type_id": 1
        }
      },
      {
        "SpecialToken": {
          "id": "[SEP]",
          "type_id": 1
        }
      }
    ],
    "special_tokens": {
      "[CLS]": {
        "id": "[CLS]",
        "ids": [
          2
        ],
        "tokens": [
          "[CLS]"
        ]
      },
      "[SEP]": {
        "id": "[SEP]",
        "ids": [
          3
        ],
        "tokens": [
          "[SEP]"
        ]
      }
    }
  },
  "decoder": {
    "type": "WordPiece",
    "prefix": "##",
    "cleanup": true
  },
  "model": {
    "type": "WordPiece",
    "unk_token": "[UNK]",
    "continuing_subword_prefix": "##",
    "max_input_chars_per_word": 100,
    "vocab": {
      "[UNK]": 0,
      "[PAD]": 1,
      "[CLS]": 2,
      "[SEP]": 3,
      "[MASK]": 4,
      "!": 5,
      "\"": 6,
      "#": 7,
      "$": 8,
      "%": 9,
      "&": 10,
      "'": 11,
      "(": 12,
      ")": 13,
      "*": 14,
      "+": 15,
      ",": 16,
      "-": 17,
      ".": 18,
      "/": 19,
      "0": 20,
      "1": 21,
      "2": 22,
      "3": 23,
      "4": 24,
      "5": 25,
      "6": 26,
      "7": 27,
      "8": 28,
      "9": 29,
      ":": 30,
      ";": 31,
      "<": 32,
      "=": 33,
      ">": 34,
      "?": 35,
      "@": 36,
      "A": 37,
      "B": 38,
      "C": 39,
      "D": 40,
      "E": 41,
      "F": 42,
      "G": 43,
      "H": 44,
      "I": 45,
      "J": 46,
      "K": 47,
      "L": 48,
      "M": 49,
      "N": 50,
      "O": 51,
      "P": 52,
      "Q": 53,
      "R": 54,
      "S": 55,
      "T": 56,
      "U": 57,
      "V": 58,
      "W": 59,
      "X": 60,
      "Y": 61,
      "Z": 62,
      "[": 63,
      "]": 64,
      "_": 65,
      "`": 66,
      "a": 67,
      "b": 68,
      "c": 69,
      "d": 70,
      "e": 71,
      "f": 72,
      "g": 73,
      "h": 74,
      "i": 75,
      "j": 76,
      "k": 77,
      "l": 78,
      "m": 79,
      "n": 80,
      "o": 81,
      "p": 82,
      "q": 83,
      "r": 84,
      "s": 85,
      "t": 86,
      "u": 87,
      "v": 88,
      "w": 89,
      "x": 90,
      "y": 91,
      "z": 92,
      "|": 93,
      "~": 94,
      "£": 95,
      "§": 96,
      "¨": 97,
      "©": 98,
      "«": 99,
      "°": 100,
      "±": 101,
      "²": 102,
      "³": 103,
      "´": 104,
      "·": 105,
      "º": 106,
      "»": 107,
      "¼": 108,
      "½": 109,
      "¾": 110,
      "À": 111,
      "Á": 112,
      "Ä": 113,
      "Å": 114,
      "Ç": 115,
      "È": 116,
      "É": 117,
      "Ë": 118,
      "Í": 119,
      "Ó": 120,
      "Ö": 121,
      "×": 122,
      "Ø": 123,
      "Ú": 124,
      "Ü": 125,
      "ß": 126,
      "à": 127,
      "á": 128,
      "â": 129,
      "ã": 130,
      "ä": 131,
      "å": 132,
      "æ": 133,
      "ç": 134,
      "è": 135,
      "é": 136,
      "ê": 137,
      "ë": 138,
      "ì": 139,
      "í": 140,
      "î": 141,
      "ï": 142,
      "ð": 143,
      "ñ": 144,
      "ò": 145,
      "ó": 146,
      "ô": 147,
      "õ": 148,
      "ö": 149,
      "ø": 150,
      "ú": 151,
      "û": 152,
      "ü": 153,
      "ý": 154,
      "ā": 155,
      "ă": 156,
      "ą": 157,
      "ć": 158,
      "č": 159,
      "ė": 160,
      "ę": 161,
      "ğ": 162,
      "ī": 163,
      "ı": 164,
      "Ł": 165,
      "ł": 166,
      "ń": 167,
      "ő": 168,
      "Ś": 169,
      "ś": 170,
      "Ş": 171,
      "ş": 172,
      "Š": 173,
      "š": 174,
      "ū": 175,
      "ŭ": 176,
      "ų": 177,
      "ź": 178,
      "ž": 179,
      "ǧ": 180,
      "ș": 181,
      "̈": 182,
      "̊": 183,
      "̹": 184,
      "ς": 185,
      "ӕ": 186,
      "ᴂ": 187,
      "‑": 188,
      "–": 189,
      "—": 190,
      "’": 191,
      "”": 192,
      "…": 193,
      "€": 194,
      "⅓": 195,
      "−": 196,
      "ﬁ": 197,
      "##ä": 198,
      "##r": 199,
      "##s": 200,
      "##a": 201,
      "##i": 202,
      "##g": 203,
      "##h": 204,
      "##e": 205,
      "##t": 206,
      "##n": 207,
      "##k": 208,
      "##l": 209,
      "##b": 210,
      "##v": 211,
      "##j": 212,
      "##d": 213,
      "##p": 214,
      "##o": 215,
      "##C": 216,
      "##ö": 217,
      "##m": 218,
      "##O": 219,
      "##N": 220,
      "##A": 221,
      "##E": 222,
      "##R": 223,
      "##c": 224,
      "##S": 225,
      "##T": 226,
      "##f": 227,
      "##u": 228,
      "##å": 229,
      "##y": 230,
      "##5": 231,
      "##9": 232,
      "##0": 233,
      "##Ö": 234,
      "##z": 235,
      "##x": 236,
      "##.": 237,
      "##-": 238,
      "##+": 239,
      "##4": 240,
      "##2": 241,
      "##G": 242,
      "##é": 243,
      "##3": 244,
      "##M": 245,
      "##I": 246,
      "##K": 247,
      "##1": 248,
      "##B": 249,
      "##Y": 250,
      "##7": 251,
      "##P": 252,
      "##F": 253,
      "##8": 254,
      "##D": 255,
      "##»": 256,
      "##;": 257,
      "##>": 258,
      "##V": 259,
      "##6": 260,
      "##Z": 261,
      "##U": 262,
      "##á": 263,
      "##!": 264,
      "##/": 265,
      "##Ä": 266,
      "##J": 267,
      "##L": 268,
      "##,": 269,
      "##q": 270,
      "##'": 271,
      "##W": 272,
      "##«": 273,
      "##Å": 274,
      "##:": 275,
      "##—": 276,
      "##X": 277,
      "##\"": 278,
      "##w": 279,
      "##̈": 280,
      "##|": 281,
      "##H": 282,
      "##?": 283,
      "##É": 284,
      "##ž": 285,
      "##&": 286,
      "##=": 287,
      "##”": 288,
      "##ü": 289,
      "##)": 290,
      "##Q": 291,
      "##<": 292,
      "##è": 293,
      "##ó": 294,
      "##ï": 295,
      "##ë": 296,
      "##æ": 297,
      "##ø": 298,
      "##`": 299,
      "##(": 300,
      "##€": 301,
      "##ç": 302,
      "##]": 303,
      "##$": 304,
      "##ğ": 305,
      "##í": 306,
      "##ì": 307,
      "##[": 308,
      "##ė": 309,
      "##_": 310,
      "##ñ": 311,
      "##º": 312,
      "##£": 313,
      "##ş": 314,
      "##̊": 315,
      "##’": 316,
      "##Ø": 317,
      "##Ü": 318,
      "##ú": 319,
      "##î": 320,
      "##§": 321,
      "##š": 322,
      "##Ó": 323,
      "##Ë": 324,
      "##Ú": 325,
      "##…": 326,
      "##ș": 327,
      "##ã": 328,
      "##č": 329,
      "##ð": 330,
      "##ő": 331,
      "##ć": 332,
      "##ı": 333,
      "##ł": 334,
      "##û": 335,
      "##ß": 336,
      "##ê": 337,
      "##*": 338,
      "##ń": 339,
      "##â": 340,
      "##ă": 341,
      "##ę": 342,
      "##ô": 343,
      "##ﬁ": 344,
      "##à": 345,
      "##È": 346,
      "##–": 347,
      "##ò": 348,
      "##Á": 349,
      "##ς": 350,
      "##ā": 351,
      "##%": 352,
      "##ū": 353,
      "##´": 354,
      "##ý": 355,
      "##Ś": 356,
      "##ś": 357,
      "##ī": 358,
      "##ź": 359,
      "##̹": 360,
      "##õ": 361,
      "##er": 362,
      "##en": 363,
      "##tt": 364,
      "##et": 365,
      "##an": 366,
      "##ar": 367,
      "##ll": 368,
      "##ör": 369,
      "##in": 370,
      "##st": 371,
      "##om": 372,
      "att": 373,
      "##ag": 374,
      "##de": 375,
      "för": 376,
      "##ig": 377,
      "##ing": 378,
      "##na": 379,
      "##on": 380,
      "##or": 381,
      "oc": 382,
      "##sk": 383,
      "##ed": 384,
      "##är": 385,
      "##ill": 386,
      "och": 387,
      "##ti": 388,
      "de": 389,
      "in": 390,
      "##ning": 391,
      "##nd": 392,
      "det": 393,
      "som": 394,
      "##ra": 395,
      "till": 396,
      "av": 397,
      "den": 398,
      "en": 399,
      "sk": 400,
      "är": 401,
      "vi": 402,
      "##lig": 403,
      "##ck": 404,
      "##al": 405,
      "st": 406,
      "##at": 407,
      "##ss": 408,
      "om": 409,
      "ut": 410,
      "##am": 411,
      "på": 412,
      "##ande": 413,
      "an": 414,
      "##än": 415,
      "##rå": 416,
      "##ik": 417,
      "##ter": 418,
      "har": 419,
      "##es": 420,
      "##el": 421,
      "med": 422,
      "##tion": 423,
      "##te": 424,
      "##and": 425,
      "##pp": 426,
      "##un": 427,
      "##ver": 428,
      "##it": 429,
      "##ätt": 430,
      "##äll": 431,
      "##för": 432,
      "så": 433,
      "##ga": 434,
      "##ro": 435,
      "##ol": 436,
      "##het": 437,
      "##år": 438,
      "var": 439,
      "##em": 440,
      "##il": 441,
      "##kt": 442,
      "jag": 443,
      "be": 444,
      "inte": 445,
      "##re": 446,
      "##all": 447,
      "frå": 448,
      "##sl": 449,
      "man": 450,
      "##as": 451,
      "##omm": 452,
      "##ri": 453,
      "##ad": 454,
      "##ens": 455,
      "##ut": 456,
      "##ska": 457,
      "ett": 458,
      "##ade": 459,
      "##äl": 460,
      "Det": 461,
      "##äg": 462,
      "##äm": 463,
      "##id": 464,
      "##err": 465,
      "##var": 466,
      "upp": 467,
      "##ru": 468,
      "##ull": 469,
      "##is": 470,
      "##nder": 471,
      "kan": 472,
      "all": 473,
      "##tta": 474,
      "##are": 475,
      "##ott": 476,
      "Jag": 477,
      "komm": 478,
      "##åg": 479,
      "##ot": 480,
      "##man": 481,
      "##ån": 482,
      "re": 483,
      "##if": 484,
      "##ets": 485,
      "##ks": 486,
      "##att": 487,
      "##erna": 488,
      "##skott": 489,
      "##ligt": 490,
      "sam": 491,
      "##yck": 492,
      "##slag": 493,
      "##ats": 494,
      "##ger": 495,
      "##va": 496,
      "af": 497,
      "##ell": 498,
      "tal": 499,
      "någ": 500,
      "##ort": 501,
      "##ent": 502,
      "##se": 503,
      "##cke": 504,
      "##ulle": 505,
      "icke": 506,
      "##ur": 507,
      "skulle": 508,
      "##dag": 509,
      "##ram": 510,
      "bl": 511,
      "##ka": 512,
      "##da": 513,
      "##der": 514,
      "##åll": 515,
      "pro": 516,
      "##ningen": 517,
      "##ven": 518,
      "detta": 519,
      "ar": 520,
      "här": 521,
      "sig": 522,
      "under": 523,
      "19": 524,
      "##ist": 525,
      "fram": 526,
      "##del": 527,
      "##bet": 528,
      "där": 529,
      "##igt": 530,
      "##sdag": 531,
      "vid": 532,
      "rik": 533,
      "men": 534,
      "nu": 535,
      "ha": 536,
      "kun": 537,
      "må": 538,
      "##ssa": 539,
      "##den": 540,
      "när": 541,
      "##rä": 542,
      "##ställ": 543,
      "fin": 544,
      "##os": 545,
      "##ingen": 546,
      "få": 547,
      "herr": 548,
      "vill": 549,
      "##ak": 550,
      "från": 551,
      "skall": 552,
      "##ligen": 553,
      "##vis": 554,
      "##isk": 555,
      "##ste": 556,
      "del": 557,
      "vara": 558,
      "min": 559,
      "bet": 560,
      "##ndra": 561,
      "##öj": 562,
      "##mar": 563,
      "Herr": 564,
      "över": 565,
      "##ord": 566,
      "år": 567,
      "denna": 568,
      "##håll": 569,
      "##ation": 570,
      "talman": 571,
      "##liga": 572,
      "mo": 573,
      "##kså": 574,
      "också": 575,
      "##sta": 576,
      "##ende": 577,
      "##iv": 578,
      "##ma": 579,
      "##änd": 580,
      "##ller": 581,
      "##ne": 582,
      "##ningar": 583,
      "##sp": 584,
      "##ser": 585,
      "##ft": 586,
      "##ns": 587,
      "##iti": 588,
      "##yg": 589,
      "res": 590,
      "##ång": 591,
      "kon": 592,
      "eller": 593,
      "än": 594,
      "förslag": 595,
      "##ff": 596,
      "gör": 597,
      "##gl": 598,
      "ju": 599,
      "##esl": 600,
      "##lar": 601,
      "##gan": 602,
      "då": 603,
      "##red": 604,
      "kunna": 605,
      "or": 606,
      "##fter": 607,
      "utskott": 608,
      "beh": 609,
      "##ts": 610,
      "##itt": 611,
      "##enom": 612,
      "##og": 613,
      "##sdagen": 614,
      "##äk": 615,
      "##era": 616,
      "åt": 617,
      "tid": 618,
      "##ek": 619,
      "##dan": 620,
      "##ycket": 621,
      "##ition": 622,
      "##ighet": 623,
      "##aj": 624,
      "andra": 625,
      "sy": 626,
      "##det": 627,
      "##sätt": 628,
      "arbet": 629,
      "##edan": 630,
      "##iga": 631,
      "##lik": 632,
      "##ans": 633,
      "##min": 634,
      "An": 635,
      "gäll": 636,
      "förs": 637,
      "sin": 638,
      "väl": 639,
      "ver": 640,
      "Vi": 641,
      "##sson": 642,
      "mycket": 643,
      "##ilj": 644,
      "sj": 645,
      "##ok": 646,
      "fl": 647,
      "##nings": 648,
      "sådan": 649,
      "ber": 650,
      "##ci": 651,
      "kommer": 652,
      "hel": 653,
      "ska": 654,
      "##ud": 655,
      "##ta": 656,
      "##ring": 657,
      "mot": 658,
      "##yr": 659,
      "##gå": 660,
      "##osition": 661,
      "fråga": 662,
      "##00": 663,
      "reger": 664,
      "vil": 665,
      "##andet": 666,
      "##ast": 667,
      "dessa": 668,
      "motion": 669,
      "lag": 670,
      "##par": 671,
      "någon": 672,
      "utan": 673,
      "ny": 674,
      "##ion": 675,
      "##nad": 676,
      "##arna": 677,
      "De": 678,
      "Men": 679,
      "tr": 680,
      "måste": 681,
      "bli": 682,
      "##position": 683,
      "genom": 684,
      "##oliti": 685,
      "##terna": 686,
      "##ammar": 687,
      "vad": 688,
      "##ve": 689,
      "bör": 690,
      "##ken": 691,
      "mig": 692,
      "stats": 693,
      "stor": 694,
      "##ister": 695,
      "rätt": 696,
      "##öd": 697,
      "##ling": 698,
      "kr": 699,
      "##ost": 700,
      "##led": 701,
      "##ber": 702,
      "sätt": 703,
      "##lighet": 704,
      "##änn": 705,
      "er": 706,
      "möj": 707,
      "##rag": 708,
      "bar": 709,
      "efter": 710,
      "vår": 711,
      "finns": 712,
      "##gär": 713,
      "han": 714,
      "##ster": 715,
      "gru": 716,
      "##yd": 717,
      "För": 718,
      "Den": 719,
      "ställ": 720,
      "##la": 721,
      "före": 722,
      "ex": 723,
      "##und": 724,
      "##tid": 725,
      "får": 726,
      "##des": 727,
      "##od": 728,
      "##ch": 729,
      "##gen": 730,
      "##skil": 731,
      "hem": 732,
      "##som": 733,
      "dag": 734,
      "något": 735,
      "sl": 736,
      "##ul": 737,
      "gäller": 738,
      "##änk": 739,
      "hade": 740,
      "##stå": 741,
      "Maj": 742,
      "##orm": 743,
      "##gif": 744,
      "##unkt": 745,
      "hö": 746,
      "##sen": 747,
      "##ket": 748,
      "bif": 749,
      "alla": 750,
      "##öl": 751,
      "##åt": 752,
      "##itet": 753,
      "##iska": 754,
      "hu": 755,
      "inom": 756,
      "se": 757,
      "##äng": 758,
      "##ja": 759,
      "##bl": 760,
      "##fatt": 761,
      "göra": 762,
      "##ock": 763,
      "##vär": 764,
      "##verig": 765,
      "stat": 766,
      "##sb": 767,
      "mån": 768,
      "##rö": 769,
      "fall": 770,
      "##äga": 771,
      "##tag": 772,
      "##else": 773,
      "##läg": 774,
      "Sverig": 775,
      "##frå": 776,
      "##anden": 777,
      "dem": 778,
      "proposition": 779,
      "##varande": 780,
      "##sa": 781,
      "##eslut": 782,
      "der": 783,
      "ta": 784,
      "nr": 785,
      "##minister": 786,
      "##utskott": 787,
      "##nat": 788,
      "##um": 789,
      "inne": 790,
      "##cial": 791,
      "St": 792,
      "##vår": 793,
      "per": 794,
      "reser": 795,
      "##gående": 796,
      "sak": 797,
      "##rik": 798,
      "##olk": 799,
      "##stäm": 800,
      "anled": 801,
      "##..": 802,
      "säga": 803,
      "##tal": 804,
      "##bru": 805,
      "##je": 806,
      "##ocial": 807,
      "ytt": 808,
      "lö": 809,
      "yr": 810,
      "int": 811,
      "hand": 812,
      "##nas": 813,
      "näm": 814,
      "##pa": 815,
      "frågan": 816,
      "regeringen": 817,
      "##lag": 818,
      "anledning": 819,
      "verk": 820,
      "även": 821,
      "##bets": 822,
      "tror": 823,
      "##ål": 824,
      "kammar": 825,
      "##ksam": 826,
      "land": 827,
      "##du": 828,
      "##orde": 829,
      "Anf": 830,
      "Ut": 831,
      "##ering": 832,
      "##tiv": 833,
      "##onom": 834,
      "par": 835,
      "##le": 836,
      "##opp": 837,
      "bifall": 838,
      "kron": 839,
      "många": 840,
      "##ygg": 841,
      "sven": 842,
      "änd": 843,
      "riksdagen": 844,
      "varit": 845,
      "lik": 846,
      "grund": 847,
      "led": 848,
      "Nr": 849,
      "##bil": 850,
      "beslut": 851,
      "em": 852,
      "vikt": 853,
      "##ner": 854,
      "sp": 855,
      "##sam": 856,
      "##veck": 857,
      "Sverige": 858,
      "utskottet": 859,
      "gj": 860,
      "vär": 861,
      "##nar": 862,
      "ord": 863,
      "milj": 864,
      "behö": 865,
      "föret": 866,
      "##vänd": 867,
      "##riv": 868,
      "Kun": 869,
      "##rådet": 870,
      "##män": 871,
      "tv": 872,
      "komma": 873,
      "skol": 874,
      "vä": 875,
      "gå": 876,
      "##eller": 877,
      "##nan": 878,
      "##lika": 879,
      "Kungl": 880,
      "utt": 881,
      "##ef": 882,
      "##get": 883,
      "##akt": 884,
      "hemställ": 885,
      "hän": 886,
      "##vation": 887,
      "tyck": 888,
      "föl": 889,
      "##ksamhet": 890,
      "##gor": 891,
      "skatt": 892,
      "hur": 893,
      "##bb": 894,
      "själ": 895,
      "kronor": 896,
      "hög": 897,
      "syn": 898,
      "##ress": 899,
      "##ök": 900,
      "allt": 901,
      "utred": 902,
      "social": 903,
      "blir": 904,
      "##gör": 905,
      "##okra": 906,
      "##ellan": 907,
      "sär": 908,
      "##rätt": 909,
      "hv": 910,
      "samman": 911,
      "##ades": 912,
      "##skap": 913,
      "##iss": 914,
      "##son": 915,
      "kommun": 916,
      "läg": 917,
      "##ld": 918,
      "##orts": 919,
      "håll": 920,
      "arbets": 921,
      "olika": 922,
      "##yn": 923,
      "ans": 924,
      "##atur": 925,
      "därför": 926,
      "##gi": 927,
      "reservation": 928,
      "annat": 929,
      "Om": 930,
      "##lägg": 931,
      "##edel": 932,
      "tag": 933,
      "samt": 934,
      "Man": 935,
      "möjlighet": 936,
      "utl": 937,
      "några": 938,
      "##nal": 939,
      "##komm": 940,
      "##arbet": 941,
      "säg": 942,
      "stör": 943,
      "##verk": 944,
      "mer": 945,
      "åtgär": 946,
      "vet": 947,
      "särskil": 948,
      "föresl": 949,
      "##ant": 950,
      "Utskott": 951,
      "riksdag": 952,
      "##ov": 953,
      "sedan": 954,
      "oss": 955,
      "##rän": 956,
      "##konom": 957,
      "##oll": 958,
      "##kom": 959,
      "yrk": 960,
      "förhåll": 961,
      "vissa": 962,
      "anför": 963,
      "bara": 964,
      "väg": 965,
      "000": 966,
      "##stem": 967,
      "##häll": 968,
      "företag": 969,
      "utveck": 970,
      "##ministern": 971,
      "##far": 972,
      "utskottets": 973,
      "mellan": 974,
      "##bild": 975,
      "allmän": 976,
      "##styr": 977,
      "end": 978,
      "sitt": 979,
      "En": 980,
      "##väg": 981,
      "un": 982,
      "stora": 983,
      "##gång": 984,
      "natur": 985,
      "klar": 986,
      "##batt": 987,
      "full": 988,
      "politi": 989,
      "##im": 990,
      "ök": 991,
      "##bar": 992,
      "##nen": 993,
      "jord": 994,
      "##pr": 995,
      "angående": 996,
      "##igare": 997,
      "##ella": 998,
      "tycker": 999,
      "##änder": 1000,
      "mar": 1001,
      "##räff": 1002,
      "pl": 1003,
      "följ": 1004,
      "åter": 1005,
      "##dem": 1006,
      "säger": 1007,
      "samma": 1008,
      "männ": 1009,
      "fort": 1010,
      "20": 1011,
      "folk": 1012,
      "vis": 1013,
      "##äst": 1014,
      "##med": 1015,
      "##raf": 1016,
      "##klar": 1017,
      "##us": 1018,
      "Där": 1019,
      "):": 1020,
      "##ske": 1021,
      "##av": 1022,
      "##org": 1023,
      "ekonom": 1024,
      "##skatt": 1025,
      "##jän": 1026,
      "svenska": 1027,
      "##elsen": 1028,
      "kammaren": 1029,
      "rikt": 1030,
      "##itu": 1031,
      "bestäm": 1032,
      "##blem": 1033,
      "##form": 1034,
      "##vid": 1035,
      "kra": 1036,
      "##ank": 1037,
      "##land": 1038,
      "rö": 1039,
      "##ult": 1040,
      "##ick": 1041,
      "regering": 1042,
      "198": 1043,
      "förut": 1044,
      "18": 1045,
      "##dom": 1046,
      "##skt": 1047,
      "##ämp": 1048,
      "människ": 1049,
      "öf": 1050,
      "sid": 1051,
      "svar": 1052,
      "hela": 1053,
      "slut": 1054,
      "förb": 1055,
      "Detta": 1056,
      "10": 1057,
      "just": 1058,
      "enligt": 1059,
      "sina": 1060,
      "##demokra": 1061,
      "helt": 1062,
      "Rik": 1063,
      "##ala": 1064,
      "##anska": 1065,
      "går": 1066,
      "##ari": 1067,
      "ej": 1068,
      "tillf": 1069,
      "betänk": 1070,
      "dess": 1071,
      "##äker": 1072,
      "först": 1073,
      "##enhet": 1074,
      "samhäll": 1075,
      "kanske": 1076,
      "frågor": 1077,
      "##han": 1078,
      "redan": 1079,
      "##fva": 1080,
      "ty": 1081,
      "första": 1082,
      "##ce": 1083,
      "lång": 1084,
      "nya": 1085,
      "##ikt": 1086,
      "såsom": 1087,
      "kom": 1088,
      "god": 1089,
      "ts": 1090,
      "##vin": 1091,
      "##sm": 1092,
      "person": 1093,
      "människor": 1094,
      "##sför": 1095,
      "anslag": 1096,
      "ser": 1097,
      "##tså": 1098,
      "bef": 1099,
      "##åra": 1100,
      "ang": 1101,
      "När": 1102,
      "skäl": 1103,
      "##uk": 1104,
      "##parti": 1105,
      "197": 1106,
      "val": 1107,
      "inneb": 1108,
      "behand": 1109,
      "##vud": 1110,
      "intress": 1111,
      "pr": 1112,
      "alltså": 1113,
      "##hol": 1114,
      "bå": 1115,
      "##gar": 1116,
      "jordbru": 1117,
      "anser": 1118,
      "debatt": 1119,
      "lär": 1120,
      "åtgärder": 1121,
      "annan": 1122,
      "äro": 1123,
      "Fru": 1124,
      "disk": 1125,
      "##mark": 1126,
      "##rar": 1127,
      "##räck": 1128,
      "##drag": 1129,
      "##unk": 1130,
      "maj": 1131,
      "##tem": 1132,
      "##utskottets": 1133,
      "barn": 1134,
      "##idrag": 1135,
      "In": 1136,
      "Då": 1137,
      "stå": 1138,
      "gång": 1139,
      "##ganis": 1140,
      "större": 1141,
      "##skol": 1142,
      "bes": 1143,
      "läng": 1144,
      "själv": 1145,
      "sådana": 1146,
      "##ynd": 1147,
      "uppfatt": 1148,
      "##fall": 1149,
      "konst": 1150,
      "sag": 1151,
      "ifrå": 1152,
      "vårt": 1153,
      "##går": 1154,
      "viss": 1155,
      "punkt": 1156,
      "tidigare": 1157,
      "##plik": 1158,
      "##ran": 1159,
      "##val": 1160,
      "##igheter": 1161,
      "##utskottet": 1162,
      "##delse": 1163,
      "##sättning": 1164,
      "##enter": 1165,
      "problem": 1166,
      "dock": 1167,
      "fri": 1168,
      "ge": 1169,
      "##hand": 1170,
      "svår": 1171,
      "##ligare": 1172,
      "bra": 1173,
      "15": 1174,
      "11": 1175,
      "områ": 1176,
      "inför": 1177,
      "12": 1178,
      "##pro": 1179,
      "kunde": 1180,
      "nämligen": 1181,
      "Kon": 1182,
      "##ift": 1183,
      "endast": 1184,
      "disku": 1185,
      "##be": 1186,
      "Forts": 1187,
      "##ellertid": 1188,
      "##mär": 1189,
      "##ind": 1190,
      "##emp": 1191,
      "utlåt": 1192,
      "fast": 1193,
      "ytter": 1194,
      "##öm": 1195,
      "innebär": 1196,
      "begär": 1197,
      "naturligt": 1198,
      "##syn": 1199,
      "eg": 1200,
      "pri": 1201,
      "##ON": 1202,
      "##udget": 1203,
      "hemställan": 1204,
      "vor": 1205,
      "##politi": 1206,
      "fått": 1207,
      "##eri": 1208,
      "und": 1209,
      "två": 1210,
      "##jäl": 1211,
      "##berg": 1212,
      "##cent": 1213,
      "##ingar": 1214,
      "##nsdagen": 1215,
      "sen": 1216,
      "öfver": 1217,
      "##ension": 1218,
      ".)": 1219,
      "##ivit": 1220,
      "##ry": 1221,
      "dels": 1222,
      "##dre": 1223,
      "sådant": 1224,
      "verksamhet": 1225,
      "Onsdagen": 1226,
      "kost": 1227,
      "##dust": 1228,
      "##so": 1229,
      "ganska": 1230,
      "mindre": 1231,
      "förm": 1232,
      "ned": 1233,
      "##ten": 1234,
      "rör": 1235,
      "Sk": 1236,
      "nöd": 1237,
      "borde": 1238,
      "##ganisation": 1239,
      "##holm": 1240,
      "##est": 1241,
      "lig": 1242,
      "##ly": 1243,
      "exemp": 1244,
      "propositionen": 1245,
      "##ryck": 1246,
      "##hålla": 1247,
      "ur": 1248,
      "sm": 1249,
      "##öter": 1250,
      "säker": 1251,
      "kri": 1252,
      "##ER": 1253,
      "hvar": 1254,
      "försvar": 1255,
      "bed": 1256,
      "13": 1257,
      "jäm": 1258,
      "hvil": 1259,
      "##unn": 1260,
      "våra": 1261,
      "emellertid": 1262,
      "använd": 1263,
      "##kti": 1264,
      "bety": 1265,
      "tro": 1266,
      "##lingen": 1267,
      "rå": 1268,
      "parti": 1269,
      "bätt": 1270,
      "##elser": 1271,
      "##naden": 1272,
      "ledam": 1273,
      "red": 1274,
      "##stånd": 1275,
      "föreslag": 1276,
      "bättre": 1277,
      "##sats": 1278,
      "##vs": 1279,
      "vidare": 1280,
      "##ej": 1281,
      "arbete": 1282,
      "##ati": 1283,
      "Kammar": 1284,
      "bek": 1285,
      "14": 1286,
      "ske": 1287,
      "län": 1288,
      "utredning": 1289,
      "ung": 1290,
      "landet": 1291,
      "exempel": 1292,
      "##op": 1293,
      "kl": 1294,
      "##seende": 1295,
      "bel": 1296,
      "##nu": 1297,
      "##hör": 1298,
      "står": 1299,
      "röst": 1300,
      "pen": 1301,
      "##öll": 1302,
      "##slö": 1303,
      "statsrådet": 1304,
      "sjuk": 1305,
      "gjort": 1306,
      "##rafik": 1307,
      "##stad": 1308,
      "##nes": 1309,
      "##van": 1310,
      "##aren": 1311,
      "möjligt": 1312,
      "##agen": 1313,
      "##punkt": 1314,
      "blif": 1315,
      "ansvar": 1316,
      "##SS": 1317,
      "uttal": 1318,
      "Utskottet": 1319,
      "##pen": 1320,
      "tillfäll": 1321,
      "##dagen": 1322,
      "##rade": 1323,
      "##erade": 1324,
      "budget": 1325,
      "##stift": 1326,
      "##nader": 1327,
      "##tering": 1328,
      "vilka": 1329,
      "##lund": 1330,
      "form": 1331,
      "##tro": 1332,
      "naturligtvis": 1333,
      "bost": 1334,
      "framställ": 1335,
      "stöd": 1336,
      "##partem": 1337,
      "vilja": 1338,
      "enskil": 1339,
      "Nu": 1340,
      "##rott": 1341,
      "##partement": 1342,
      "utbild": 1343,
      "vore": 1344,
      "sagt": 1345,
      "##gifter": 1346,
      "16": 1347,
      "##heten": 1348,
      "länder": 1349,
      "tjän": 1350,
      "vilket": 1351,
      "##els": 1352,
      "fr": 1353,
      "ön": 1354,
      "##ds": 1355,
      "le": 1356,
      "hör": 1357,
      "Vad": 1358,
      "##sten": 1359,
      "ka": 1360,
      "bered": 1361,
      "replik": 1362,
      "huvud": 1363,
      "skola": 1364,
      "##deles": 1365,
      "##spro": 1366,
      "##ärn": 1367,
      "##....": 1368,
      "##its": 1369,
      "ingen": 1370,
      "##tera": 1371,
      "##terp": 1372,
      "##öka": 1373,
      "##ernas": 1374,
      "##ire": 1375,
      "gen": 1376,
      "ytterligare": 1377,
      "hafva": 1378,
      "behöver": 1379,
      "antal": 1380,
      "##ästa": 1381,
      "##förs": 1382,
      "##till": 1383,
      "bort": 1384,
      "haft": 1385,
      "nog": 1386,
      "##mer": 1387,
      "##iskt": 1388,
      "beträff": 1389,
      "väck": 1390,
      "##ringar": 1391,
      "sade": 1392,
      "##ny": 1393,
      "både": 1394,
      "viktigt": 1395,
      "star": 1396,
      "##tte": 1397,
      "##fven": 1398,
      "##digt": 1399,
      "##ellt": 1400,
      "##ren": 1401,
      "##partiet": 1402,
      "##SSON": 1403,
      "ly": 1404,
      "##orna": 1405,
      "##fv": 1406,
      "##rad": 1407,
      "##samma": 1408,
      "##vä": 1409,
      "finans": 1410,
      "##ningarna": 1411,
      "##ockholm": 1412,
      "##oner": 1413,
      "mera": 1414,
      "##röm": 1415,
      "##ings": 1416,
      "17": 1417,
      "fler": 1418,
      "skog": 1419,
      "lå": 1420,
      "##sett": 1421,
      "beg": 1422,
      "Vid": 1423,
      "fatt": 1424,
      "förhållanden": 1425,
      "##AN": 1426,
      "##ituation": 1427,
      "socialdemokra": 1428,
      "bil": 1429,
      "##väl": 1430,
      "framför": 1431,
      "##gru": 1432,
      "egen": 1433,
      "Jo": 1434,
      "##inci": 1435,
      "##per": 1436,
      "staten": 1437,
      "öv": 1438,
      "##äd": 1439,
      "bygg": 1440,
      "##mäl": 1441,
      "##lö": 1442,
      "tyd": 1443,
      "##nads": 1444,
      "##ju": 1445,
      "##ic": 1446,
      "##ellation": 1447,
      "inkom": 1448,
      "Med": 1449,
      "##ori": 1450,
      "##ivet": 1451,
      "Och": 1452,
      "##ionen": 1453,
      "##pl": 1454,
      "##borg": 1455,
      "bestämm": 1456,
      "##oritet": 1457,
      "Stockholm": 1458,
      "hvad": 1459,
      "förelig": 1460,
      "##ständ": 1461,
      "verkligen": 1462,
      "stad": 1463,
      "##AR": 1464,
      "förklar": 1465,
      "##terpellation": 1466,
      "läm": 1467,
      "##duk": 1468,
      "bostad": 1469,
      "##dustri": 1470,
      "huru": 1471,
      "särskilt": 1472,
      "höj": 1473,
      "##näm": 1474,
      "##och": 1475,
      "##dt": 1476,
      "börj": 1477,
      "års": 1478,
      "##nade": 1479,
      "##fär": 1480,
      "ändå": 1481,
      "##én": 1482,
      "##raft": 1483,
      "##gas": 1484,
      "ännu": 1485,
      "##spoliti": 1486,
      "kunnat": 1487,
      "sida": 1488,
      "utveckling": 1489,
      "pra": 1490,
      "ni": 1491,
      "alldeles": 1492,
      "motionen": 1493,
      "##änt": 1494,
      "hos": 1495,
      "mitt": 1496,
      "##erar": 1497,
      "gl": 1498,
      "##ultat": 1499,
      "reg": 1500,
      "##andel": 1501,
      "ligger": 1502,
      "##tionen": 1503,
      "##bygg": 1504,
      "regl": 1505,
      "mark": 1506,
      "äm": 1507,
      "måtte": 1508,
      "sammanhan": 1509,
      "medel": 1510,
      "nödvänd": 1511,
      "##olag": 1512,
      "förslaget": 1513,
      "tar": 1514,
      "lika": 1515,
      "vin": 1516,
      "handlar": 1517,
      "sist": 1518,
      "bland": 1519,
      "procent": 1520,
      "##EN": 1521,
      "varje": 1522,
      "fa": 1523,
      "##slut": 1524,
      "heller": 1525,
      "kvin": 1526,
      "stort": 1527,
      "##app": 1528,
      "pension": 1529,
      "önsk": 1530,
      "##akti": 1531,
      "ekonomiska": 1532,
      "jo": 1533,
      "mening": 1534,
      "kommit": 1535,
      "ledamöter": 1536,
      "Här": 1537,
      "##äck": 1538,
      "196": 1539,
      "utlåtande": 1540,
      "Så": 1541,
      "Kammaren": 1542,
      "uppfattning": 1543,
      "deras": 1544,
      "konk": 1545,
      "betänkande": 1546,
      "##eg": 1547,
      "stället": 1548,
      "##tok": 1549,
      "bev": 1550,
      "äfven": 1551,
      "##arl": 1552,
      "##vet": 1553,
      "eff": 1554,
      "##unkter": 1555,
      "##mare": 1556,
      "motioner": 1557,
      "##tokoll": 1558,
      "Ja": 1559,
      "flera": 1560,
      "##eder": 1561,
      "övr": 1562,
      "##upp": 1563,
      "far": 1564,
      "små": 1565,
      "##pril": 1566,
      "Kongl": 1567,
      "kommu": 1568,
      "##eck": 1569,
      "herrar": 1570,
      "Sedan": 1571,
      "##sak": 1572,
      "miljö": 1573,
      "ing": 1574,
      "##orr": 1575,
      "lagstift": 1576,
      "fortsätt": 1577,
      "##ust": 1578,
      "kammarens": 1579,
      "bak": 1580,
      "följande": 1581,
      "kort": 1582,
      "fördel": 1583,
      "##skri": 1584,
      "princi": 1585,
      "##under": 1586,
      "##styrelsen": 1587,
      "hjäl": 1588,
      "##kor": 1589,
      "mål": 1590,
      "väldigt": 1591,
      "klart": 1592,
      "byg": 1593,
      "##räns": 1594,
      "##rikes": 1595,
      "off": 1596,
      "behov": 1597,
      "politik": 1598,
      "kraft": 1599,
      "##gift": 1600,
      "##rist": 1601,
      "situation": 1602,
      "tre": 1603,
      "Han": 1604,
      "##verket": 1605,
      "##utom": 1606,
      "mynd": 1607,
      "stånd": 1608,
      "##ström": 1609,
      "##vit": 1610,
      "##föra": 1611,
      "##eras": 1612,
      "Re": 1613,
      "litet": 1614,
      "plan": 1615,
      "Stats": 1616,
      "allmänna": 1617,
      "blivit": 1618,
      "miljoner": 1619,
      "tiden": 1620,
      "##alt": 1621,
      "##lunda": 1622,
      "##ystem": 1623,
      "##bart": 1624,
      "##kän": 1625,
      "förord": 1626,
      "talmannen": 1627,
      "reservationen": 1628,
      "25": 1629,
      "##ember": 1630,
      "delar": 1631,
      "##rig": 1632,
      "resultat": 1633,
      "beträffande": 1634,
      "Riksdagen": 1635,
      "##uro": 1636,
      "##io": 1637,
      "dom": 1638,
      "skri": 1639,
      "30": 1640,
      "Ang": 1641,
      "jobb": 1642,
      "ställning": 1643,
      "##nor": 1644,
      "arbetsmark": 1645,
      "berör": 1646,
      "fakti": 1647,
      "område": 1648,
      "ifråga": 1649,
      "skatte": 1650,
      "nuvarande": 1651,
      "hänsyn": 1652,
      "##orsk": 1653,
      "##trä": 1654,
      "Utskottets": 1655,
      "##tions": 1656,
      "##fta": 1657,
      "krä": 1658,
      "Att": 1659,
      "organisation": 1660,
      "betydelse": 1661,
      "dire": 1662,
      "pre": 1663,
      "interpellation": 1664,
      "främ": 1665,
      "hopp": 1666,
      "##ba": 1667,
      "personer": 1668,
      "21": 1669,
      "200": 1670,
      "saken": 1671,
      "kam": 1672,
      "längre": 1673,
      "yrka": 1674,
      "##visa": 1675,
      "##ym": 1676,
      "riksdagens": 1677,
      "miss": 1678,
      "195": 1679,
      "##jer": 1680,
      "arbetslö": 1681,
      "statens": 1682,
      "##enden": 1683,
      "skriv": 1684,
      "##ledes": 1685,
      "##full": 1686,
      "bor": 1687,
      "##stid": 1688,
      "vilken": 1689,
      "EU": 1690,
      "##rakt": 1691,
      "regeringens": 1692,
      "räk": 1693,
      "förutsätt": 1694,
      "uttryck": 1695,
      "##komma": 1696,
      "Ander": 1697,
      "##ars": 1698,
      "##gs": 1699,
      "talar": 1700,
      "##handling": 1701,
      "##sin": 1702,
      "##eläg": 1703,
      "ger": 1704,
      "styr": 1705,
      "bidrag": 1706,
      "lagen": 1707,
      "system": 1708,
      "##olis": 1709,
      "liv": 1710,
      "antag": 1711,
      "##emot": 1712,
      "##bör": 1713,
      "##gande": 1714,
      "##ektiv": 1715,
      "industri": 1716,
      "omfatt": 1717,
      "##råd": 1718,
      "själva": 1719,
      "förh": 1720,
      "##ekt": 1721,
      "förek": 1722,
      "##tiver": 1723,
      "hans": 1724,
      "inf": 1725,
      "riktigt": 1726,
      "fp": 1727,
      "minst": 1728,
      "##över": 1729,
      "punkten": 1730,
      "ja": 1731,
      "syss": 1732,
      "##ier": 1733,
      "kän": 1734,
      "framti": 1735,
      "##öp": 1736,
      "##igheten": 1737,
      "möjligheter": 1738,
      "##otering": 1739,
      "##eter": 1740,
      "emot": 1741,
      "således": 1742,
      "fy": 1743,
      "faktiskt": 1744,
      "ändring": 1745,
      "##ting": 1746,
      "långt": 1747,
      "förl": 1748,
      "##pres": 1749,
      "På": 1750,
      "##yld": 1751,
      "##ända": 1752,
      "##nda": 1753,
      "194": 1754,
      "gällande": 1755,
      "förbätt": 1756,
      "##pit": 1757,
      "##lem": 1758,
      "al": 1759,
      "22": 1760,
      "lämp": 1761,
      "##derat": 1762,
      "##rid": 1763,
      "betyd": 1764,
      "lätt": 1765,
      "ändra": 1766,
      "dra": 1767,
      "##nande": 1768,
      "pengar": 1769,
      "anställ": 1770,
      "konstat": 1771,
      "torde": 1772,
      "ena": 1773,
      "##öt": 1774,
      "##röst": 1775,
      "ungdom": 1776,
      "##IN": 1777,
      "finnas": 1778,
      "li": 1779,
      "viktiga": 1780,
      "##tit": 1781,
      "##net": 1782,
      "##departement": 1783,
      "prö": 1784,
      "fören": 1785,
      "##sikt": 1786,
      "##änner": 1787,
      "förra": 1788,
      "sammanhang": 1789,
      "lös": 1790,
      "trafik": 1791,
      "komp": 1792,
      "##skomm": 1793,
      "##vård": 1794,
      "protokoll": 1795,
      "någonting": 1796,
      "##äkring": 1797,
      "##satt": 1798,
      "jordbruks": 1799,
      "egent": 1800,
      "##erat": 1801,
      "##ära": 1802,
      "motiver": 1803,
      "##kel": 1804,
      "föränd": 1805,
      "äg": 1806,
      "##arbete": 1807,
      "ol": 1808,
      "högre": 1809,
      "enskilda": 1810,
      "##ev": 1811,
      "##kv": 1812,
      "##sh": 1813,
      "biföll": 1814,
      "##rån": 1815,
      "tänk": 1816,
      "anförande": 1817,
      "underst": 1818,
      "förstå": 1819,
      "##lla": 1820,
      "##tidigt": 1821,
      "##ön": 1822,
      "##rande": 1823,
      "belopp": 1824,
      "fick": 1825,
      "##tiska": 1826,
      "blifvit": 1827,
      "##of": 1828,
      "svensk": 1829,
      "eftersom": 1830,
      "##ruk": 1831,
      "Därför": 1832,
      "sats": 1833,
      "lok": 1834,
      "gem": 1835,
      "snar": 1836,
      "Till": 1837,
      "Ar": 1838,
      "##ydd": 1839,
      "risk": 1840,
      "##aste": 1841,
      "Sveriges": 1842,
      "##one": 1843,
      "##ha": 1844,
      "##ärk": 1845,
      "plats": 1846,
      "mil": 1847,
      "##ass": 1848,
      "lån": 1849,
      "krig": 1850,
      "##onal": 1851,
      ".,": 1852,
      "brott": 1853,
      "föred": 1854,
      "diskuss": 1855,
      "##sut": 1856,
      "svårt": 1857,
      "Sven": 1858,
      "tän": 1859,
      "##port": 1860,
      "##äv": 1861,
      "debatten": 1862,
      "##sonal": 1863,
      "##amilj": 1864,
      "##ST": 1865,
      "##jen": 1866,
      "allvar": 1867,
      "##minst": 1868,
      "sett": 1869,
      "slag": 1870,
      "##värt": 1871,
      "tillg": 1872,
      "##sök": 1873,
      "fru": 1874,
      "mars": 1875,
      "##efter": 1876,
      "finna": 1877,
      "##farande": 1878,
      "##minstone": 1879,
      "##sy": 1880,
      "##ensam": 1881,
      "##oende": 1882,
      "grupp": 1883,
      "##vester": 1884,
      "förekomm": 1885,
      "undan": 1886,
      "kvar": 1887,
      "tull": 1888,
      "sidan": 1889,
      "23": 1890,
      "förv": 1891,
      "prakti": 1892,
      "lä": 1893,
      "fel": 1894,
      "konkur": 1895,
      "II": 1896,
      "##hl": 1897,
      "hoppas": 1898,
      "stra": 1899,
      "##förande": 1900,
      "##verksamhet": 1901,
      "taga": 1902,
      "senare": 1903,
      "dy": 1904,
      "24": 1905,
      "199": 1906,
      "##fri": 1907,
      "nytt": 1908,
      "##las": 1909,
      "##råk": 1910,
      "järn": 1911,
      "sålunda": 1912,
      "##sträck": 1913,
      "överens": 1914,
      "##ral": 1915,
      "motionerna": 1916,
      "repres": 1917,
      "produk": 1918,
      "##håller": 1919,
      "forsk": 1920,
      "##göra": 1921,
      "jordbruk": 1922,
      "april": 1923,
      "26": 1924,
      "##ann": 1925,
      "hänvis": 1926,
      "interna": 1927,
      "spe": 1928,
      "gam": 1929,
      "kall": 1930,
      "innan": 1931,
      "alltid": 1932,
      "Nej": 1933,
      "områden": 1934,
      "##ås": 1935,
      "##erad": 1936,
      "resur": 1937,
      "ställa": 1938,
      "##iff": 1939,
      "åtminstone": 1940,
      "votering": 1941,
      "##ras": 1942,
      "##naderna": 1943,
      "pris": 1944,
      "##satta": 1945,
      "##läggningen": 1946,
      "krav": 1947,
      "Pro": 1948,
      "gemensam": 1949,
      "##sent": 1950,
      "princip": 1951,
      "tack": 1952,
      "##res": 1953,
      "##äld": 1954,
      "##rikt": 1955,
      "menar": 1956,
      "samhället": 1957,
      "##ett": 1958,
      "akt": 1959,
      "Reger": 1960,
      "##tioner": 1961,
      "##står": 1962,
      "handel": 1963,
      "##pital": 1964,
      "närvarande": 1965,
      "##ördagen": 1966,
      "##vare": 1967,
      "bedöm": 1968,
      "rörande": 1969,
      "##ir": 1970,
      "ville": 1971,
      "##eringen": 1972,
      "ansett": 1973,
      "##alm": 1974,
      "tillräck": 1975,
      "kons": 1976,
      "##ultur": 1977,
      "##satser": 1978,
      "utrikes": 1979,
      "erin": 1980,
      "fly": 1981,
      "du": 1982,
      "##fin": 1983,
      "angeläg": 1984,
      "Lördagen": 1985,
      "##atten": 1986,
      "utbildning": 1987,
      "öpp": 1988,
      "beräk": 1989,
      "gjorde": 1990,
      "##skaff": 1991,
      "28": 1992,
      "201": 1993,
      "##nala": 1994,
      "visar": 1995,
      "##skon": 1996,
      "tagit": 1997,
      "##stol": 1998,
      "demokra": 1999,
      "##yrk": 2000,
      "##igenom": 2001,
      "inkomst": 2002,
      "dri": 2003,
      "motionär": 2004,
      "inst": 2005,
      "intresse": 2006,
      "##äkt": 2007,
      "tillämp": 2008,
      "sna": 2009,
      "ofta": 2010,
      "##elat": 2011,
      "##tra": 2012,
      "##endet": 2013,
      "##departementet": 2014,
      "##efen": 2015,
      "##vik": 2016,
      "egentligen": 2017,
      "##san": 2018,
      "föreslagit": 2019,
      "polis": 2020,
      "näring": 2021,
      "ele": 2022,
      "ifrån": 2023,
      "van": 2024,
      "särskilda": 2025,
      "##vida": 2026,
      "##demokraterna": 2027,
      "##ät": 2028,
      "##läggning": 2029,
      "väsent": 2030,
      "Denna": 2031,
      "##isering": 2032,
      "arbetslös": 2033,
      "syssel": 2034,
      "internation": 2035,
      "gått": 2036,
      "vård": 2037,
      "##reds": 2038,
      "män": 2039,
      "Norr": 2040,
      "tillba": 2041,
      "snabb": 2042,
      "ob": 2043,
      "##punkter": 2044,
      "behandling": 2045,
      "##gram": 2046,
      "Ber": 2047,
      "bank": 2048,
      "fallet": 2049,
      "##ret": 2050,
      "##still": 2051,
      "27": 2052,
      "tillbaka": 2053,
      "honom": 2054,
      "synes": 2055,
      "året": 2056,
      "br": 2057,
      "offent": 2058,
      "länge": 2059,
      "##arnas": 2060,
      "direkt": 2061,
      "erfar": 2062,
      "##cis": 2063,
      "##mans": 2064,
      "##jut": 2065,
      "enda": 2066,
      "minsk": 2067,
      "##hu": 2068,
      "##ånd": 2069,
      "##frågan": 2070,
      "bord": 2071,
      "##tiva": 2072,
      "Johan": 2073,
      "##erligen": 2074,
      "##lass": 2075,
      "##ung": 2076,
      "järnväg": 2077,
      "yrkande": 2078,
      "##ativ": 2079,
      "##emiss": 2080,
      "gener": 2081,
      "##talet": 2082,
      "##stat": 2083,
      "##ldrig": 2084,
      "åstad": 2085,
      "åren": 2086,
      "fört": 2087,
      "##bidrag": 2088,
      "##stämm": 2089,
      "##verka": 2090,
      "nämn": 2091,
      "##amål": 2092,
      "##pek": 2093,
      "omröst": 2094,
      "uppmär": 2095,
      "hålla": 2096,
      "##uni": 2097,
      "redo": 2098,
      "aldrig": 2099,
      "Social": 2100,
      "synner": 2101,
      "Under": 2102,
      "häl": 2103,
      "##görande": 2104,
      "##stående": 2105,
      "Var": 2106,
      "##ktiv": 2107,
      "kvinnor": 2108,
      "gran": 2109,
      "bi": 2110,
      "rad": 2111,
      "Tor": 2112,
      "värde": 2113,
      "##uari": 2114,
      "##nden": 2115,
      "gär": 2116,
      "el": 2117,
      "utsträck": 2118,
      "ant": 2119,
      "##hus": 2120,
      "##troll": 2121,
      "##ateri": 2122,
      "Sam": 2123,
      "##anken": 2124,
      "tilläg": 2125,
      "besk": 2126,
      "Per": 2127,
      "##ie": 2128,
      "50": 2129,
      "invester": 2130,
      "##vt": 2131,
      "rim": 2132,
      "##tor": 2133,
      "Andersson": 2134,
      "##hets": 2135,
      "##anuari": 2136,
      "försök": 2137,
      "sättet": 2138,
      "ch": 2139,
      "böra": 2140,
      "fun": 2141,
      "##positionen": 2142,
      "egna": 2143,
      "##pe": 2144,
      "##valt": 2145,
      "##band": 2146,
      "råd": 2147,
      "Av": 2148,
      "helst": 2149,
      "fortfarande": 2150,
      "Mo": 2151,
      "senaste": 2152,
      "##fte": 2153,
      "Som": 2154,
      "vice": 2155,
      "sv": 2156,
      "##frågor": 2157,
      "hjälp": 2158,
      "Ett": 2159,
      "##älj": 2160,
      "framtiden": 2161,
      "budgetår": 2162,
      "29": 2163,
      "##ument": 2164,
      "anmär": 2165,
      "löne": 2166,
      "använda": 2167,
      "Ol": 2168,
      "##enheter": 2169,
      "yttrande": 2170,
      "##skill": 2171,
      "början": 2172,
      "##räd": 2173,
      "##regl": 2174,
      "Euro": 2175,
      "uppl": 2176,
      "##ligheten": 2177,
      "personal": 2178,
      "kommunerna": 2179,
      "tillfälle": 2180,
      "majoritet": 2181,
      "landst": 2182,
      "##gad": 2183,
      "##ekn": 2184,
      "##sekv": 2185,
      "näst": 2186,
      "ener": 2187,
      "lägga": 2188,
      "##äder": 2189,
      "##eman": 2190,
      "arbetet": 2191,
      "fem": 2192,
      "##ub": 2193,
      "lyck": 2194,
      "##känn": 2195,
      "pos": 2196,
      "##organisation": 2197,
      "viktig": 2198,
      "största": 2199,
      "##for": 2200,
      "bolag": 2201,
      "##rör": 2202,
      "mots": 2203,
      "finnes": 2204,
      "##redje": 2205,
      "##ien": 2206,
      "##stag": 2207,
      "##kon": 2208,
      "därmed": 2209,
      "##slagen": 2210,
      "statliga": 2211,
      "##lade": 2212,
      "funn": 2213,
      "##giv": 2214,
      "arbetar": 2215,
      "##ringen": 2216,
      "Efter": 2217,
      "lagstiftning": 2218,
      "vän": 2219,
      "tank": 2220,
      "sker": 2221,
      "reservan": 2222,
      "##kning": 2223,
      "##öte": 2224,
      "positi": 2225,
      "##ko": 2226,
      "lite": 2227,
      "förhållande": 2228,
      "velat": 2229,
      "##emål": 2230,
      "följa": 2231,
      "mest": 2232,
      "kriti": 2233,
      "dec": 2234,
      "##jäm": 2235,
      "##igheterna": 2236,
      "fär": 2237,
      "fullt": 2238,
      "##by": 2239,
      "##lan": 2240,
      "reform": 2241,
      "Nil": 2242,
      "familj": 2243,
      "övrigt": 2244,
      "utvecklingen": 2245,
      "##tyg": 2246,
      "##ern": 2247,
      "föredrag": 2248,
      "priv": 2249,
      "åtgärd": 2250,
      "##visning": 2251,
      "##rin": 2252,
      "regi": 2253,
      "kommuner": 2254,
      "kultur": 2255,
      "synpunkter": 2256,
      "##taga": 2257,
      "##lden": 2258,
      "tala": 2259,
      "miljar": 2260,
      "Riksdag": 2261,
      "blev": 2262,
      "ock": 2263,
      "##ena": 2264,
      "##ställning": 2265,
      "öka": 2266,
      "##enskap": 2267,
      "härmed": 2268,
      "ens": 2269,
      "fj": 2270,
      "uppdrag": 2271,
      "taget": 2272,
      "hitt": 2273,
      "milit": 2274,
      "##ack": 2275,
      "##skolan": 2276,
      "193": 2277,
      "politiska": 2278,
      "##på": 2279,
      "##iljö": 2280,
      "båda": 2281,
      "januari": 2282,
      "funger": 2283,
      "yrkar": 2284,
      "##utbild": 2285,
      "juni": 2286,
      "mom": 2287,
      "##ationer": 2288,
      "##vitt": 2289,
      "##redsställ": 2290,
      "##ge": 2291,
      "Är": 2292,
      "samtidigt": 2293,
      "hvilka": 2294,
      "ifrågavarande": 2295,
      "##förb": 2296,
      "närma": 2297,
      "Hur": 2298,
      "såväl": 2299,
      "skapa": 2300,
      "ändamål": 2301,
      "klara": 2302,
      "huruvida": 2303,
      "Föred": 2304,
      "borger": 2305,
      "cent": 2306,
      "instäm": 2307,
      "Lind": 2308,
      "bestämmelser": 2309,
      "##men": 2310,
      "sti": 2311,
      "grad": 2312,
      "##ker": 2313,
      "40": 2314,
      "##ebru": 2315,
      "handling": 2316,
      "All": 2317,
      "Fred": 2318,
      "Föredro": 2319,
      "##oda": 2320,
      "##ktor": 2321,
      "nödvändigt": 2322,
      "hava": 2323,
      "##ebruari": 2324,
      "##jande": 2325,
      "##elserna": 2326,
      "##grupp": 2327,
      "stud": 2328,
      "utom": 2329,
      "gärna": 2330,
      "lämna": 2331,
      "##arbetet": 2332,
      "låta": 2333,
      "tekn": 2334,
      "##me": 2335,
      "känner": 2336,
      "hus": 2337,
      "försöka": 2338,
      "hon": 2339,
      "följd": 2340,
      "behövs": 2341,
      "##förslag": 2342,
      "derför": 2343,
      "veder": 2344,
      "nej": 2345,
      "genomför": 2346,
      "kapital": 2347,
      "ordet": 2348,
      "Ty": 2349,
      "rum": 2350,
      "##bruk": 2351,
      "##ills": 2352,
      "##terar": 2353,
      "tredje": 2354,
      "bakom": 2355,
      "##ug": 2356,
      "konsekv": 2357,
      "Andra": 2358,
      "100": 2359,
      "##ess": 2360,
      "##skraft": 2361,
      "visserligen": 2362,
      "##efär": 2363,
      "##lam": 2364,
      "samband": 2365,
      "skyld": 2366,
      "##rat": 2367,
      "uppgift": 2368,
      "föran": 2369,
      "trots": 2370,
      "lit": 2371,
      "förstår": 2372,
      "##af": 2373,
      "##ND": 2374,
      "Vidare": 2375,
      "antalet": 2376,
      "spar": 2377,
      "medlem": 2378,
      "läk": 2379,
      "##politik": 2380,
      "betänkandet": 2381,
      "lin": 2382,
      "blott": 2383,
      "precis": 2384,
      "mina": 2385,
      "riksdags": 2386,
      "Enligt": 2387,
      "##cess": 2388,
      "192": 2389,
      "##itta": 2390,
      "uti": 2391,
      "söka": 2392,
      "bevilj": 2393,
      "##likt": 2394,
      "hemställt": 2395,
      "liksom": 2396,
      "##ob": 2397,
      "uppgifter": 2398,
      "represent": 2399,
      "förhandling": 2400,
      "fan": 2401,
      "föreslagna": 2402,
      "straff": 2403,
      "alls": 2404,
      "göras": 2405,
      "anses": 2406,
      "gamla": 2407,
      "fakt": 2408,
      "ungefär": 2409,
      "kö": 2410,
      "blifva": 2411,
      "##ånger": 2412,
      "privat": 2413,
      "försvars": 2414,
      "utredningen": 2415,
      "skett": 2416,
      "minska": 2417,
      "##gren": 2418,
      "begräns": 2419,
      "afseende": 2420,
      "##mera": 2421,
      "saker": 2422,
      "betala": 2423,
      "##ningens": 2424,
      "gjor": 2425,
      "ute": 2426,
      "gånger": 2427,
      "##anter": 2428,
      "enkel": 2429,
      "väckt": 2430,
      "finner": 2431,
      "avslag": 2432,
      "skad": 2433,
      "##etag": 2434,
      "resurser": 2435,
      "utsträckning": 2436,
      "##enting": 2437,
      "nå": 2438,
      "##ändra": 2439,
      "##ations": 2440,
      "##värd": 2441,
      "anmäl": 2442,
      "##ationen": 2443,
      "ford": 2444,
      "diskussion": 2445,
      "föreligger": 2446,
      "bifölls": 2447,
      "godkän": 2448,
      "##ssystem": 2449,
      "kar": 2450,
      "tjänst": 2451,
      "##inner": 2452,
      "dr": 2453,
      "inform": 2454,
      "meddel": 2455,
      "vatten": 2456,
      "tog": 2457,
      "##eln": 2458,
      "lön": 2459,
      "ökad": 2460,
      "verkställ": 2461,
      "kommunala": 2462,
      "nyss": 2463,
      "hår": 2464,
      "väckta": 2465,
      "drabb": 2466,
      "december": 2467,
      "##rukt": 2468,
      "veta": 2469,
      "avs": 2470,
      "nästa": 2471,
      "svaret": 2472,
      "##repp": 2473,
      "tillfredsställ": 2474,
      "densamma": 2475,
      "siff": 2476,
      "besvar": 2477,
      "visst": 2478,
      "synpunkt": 2479,
      "moderat": 2480,
      "##kraft": 2481,
      "hittills": 2482,
      "Fin": 2483,
      "##ivå": 2484,
      "##föl": 2485,
      "undersök": 2486,
      "avse": 2487,
      "##ivil": 2488,
      "talaren": 2489,
      "föreliggande": 2490,
      "väx": 2491,
      "håller": 2492,
      "##ften": 2493,
      "jämför": 2494,
      "konkurr": 2495,
      "varför": 2496,
      "uppen": 2497,
      "oro": 2498,
      "##istern": 2499,
      "##met": 2500,
      "bygga": 2501,
      "föregående": 2502,
      "##ansp": 2503,
      "fortsätta": 2504,
      "budgetåret": 2505,
      "avseende": 2506,
      "##vården": 2507,
      "pröv": 2508,
      "kommunal": 2509,
      "omständ": 2510,
      "skill": 2511,
      "##sf": 2512,
      "##öv": 2513,
      "31": 2514,
      "yttrade": 2515,
      "näringsl": 2516,
      "##ty": 2517,
      "ärade": 2518,
      "goda": 2519,
      "ersättning": 2520,
      "dessutom": 2521,
      "Även": 2522,
      "##ige": 2523,
      "ingenting": 2524,
      "avser": 2525,
      "##hem": 2526,
      "inv": 2527,
      "medborg": 2528,
      "##väx": 2529,
      "röstar": 2530,
      "##politiken": 2531,
      "låg": 2532,
      "##ander": 2533,
      "berätt": 2534,
      "villkor": 2535,
      "##lägga": 2536,
      "sista": 2537,
      "Regeringen": 2538,
      "beskatt": 2539,
      "##orter": 2540,
      "##emligen": 2541,
      "##sätta": 2542,
      "lokal": 2543,
      "##olog": 2544,
      "närmare": 2545,
      "191": 2546,
      "åtskill": 2547,
      "##arne": 2548,
      "##cep": 2549,
      "Johansson": 2550,
      "##isdagen": 2551,
      "##RI": 2552,
      "##EL": 2553,
      "ind": 2554,
      "pass": 2555,
      "gif": 2556,
      "departement": 2557,
      "ökade": 2558,
      "lydelse": 2559,
      "justiti": 2560,
      "konsekvens": 2561,
      "läns": 2562,
      "##gått": 2563,
      "##inge": 2564,
      "tänker": 2565,
      "området": 2566,
      "kunskap": 2567,
      "framställning": 2568,
      "tänka": 2569,
      "Torsdagen": 2570,
      "##vist": 2571,
      "##lat": 2572,
      "Svar": 2573,
      "remiss": 2574,
      "##napp": 2575,
      "alltför": 2576,
      "##oga": 2577,
      "##köp": 2578,
      "##sättningen": 2579,
      "##sma": 2580,
      "akti": 2581,
      "uttalande": 2582,
      "skydd": 2583,
      "##bel": 2584,
      "förevarande": 2585,
      "##gj": 2586,
      "kval": 2587,
      "gar": 2588,
      "flyg": 2589,
      "syfte": 2590,
      "##bland": 2591,
      "##iteten": 2592,
      "##pk": 2593,
      "tanke": 2594,
      "insatser": 2595,
      "##jekt": 2596,
      "id": 2597,
      "im": 2598,
      "miljarder": 2599,
      "föräld": 2600,
      "bästa": 2601,
      "hvilken": 2602,
      "##sbyg": 2603,
      "visa": 2604,
      "##sammans": 2605,
      "ne": 2606,
      "##nytt": 2607,
      "reservanterna": 2608,
      "visat": 2609,
      "hyr": 2610,
      "##kta": 2611,
      "äld": 2612,
      "Dessa": 2613,
      "speci": 2614,
      "##lå": 2615,
      "sätta": 2616,
      "oer": 2617,
      "betrakt": 2618,
      "##ator": 2619,
      "givet": 2620,
      "talare": 2621,
      "tydligt": 2622,
      "bevill": 2623,
      "##int": 2624,
      "##sbe": 2625,
      "##gifterna": 2626,
      "##äpp": 2627,
      "civil": 2628,
      "utgång": 2629,
      "konstitu": 2630,
      "uppe": 2631,
      "##amn": 2632,
      "ih": 2633,
      "konstatera": 2634,
      "betal": 2635,
      "am": 2636,
      "##vårds": 2637,
      "Karl": 2638,
      "fle": 2639,
      "kontroll": 2640,
      "hal": 2641,
      "vederbör": 2642,
      "fisk": 2643,
      "Carl": 2644,
      "##ovember": 2645,
      "veck": 2646,
      "##ordningen": 2647,
      "##sch": 2648,
      "##läm": 2649,
      "knapp": 2650,
      "##ond": 2651,
      "avslut": 2652,
      "sjö": 2653,
      "tillgod": 2654,
      "##jur": 2655,
      "##färd": 2656,
      "oerhör": 2657,
      "säkerhet": 2658,
      "världen": 2659,
      "fol": 2660,
      "påstå": 2661,
      "##vent": 2662,
      "35": 2663,
      "ståndpunkt": 2664,
      "statsråd": 2665,
      "övriga": 2666,
      "tillräckligt": 2667,
      "##emin": 2668,
      "värld": 2669,
      "extra": 2670,
      "demokrati": 2671,
      "anv": 2672,
      "##väsen": 2673,
      "##lder": 2674,
      ".....": 2675,
      "##gat": 2676,
      "förf": 2677,
      "##adt": 2678,
      "nation": 2679,
      "borgerliga": 2680,
      ".»": 2681,
      "Bo": 2682,
      "erinra": 2683,
      "november": 2684,
      "skolan": 2685,
      "##jör": 2686,
      "80": 2687,
      "upply": 2688,
      "ökat": 2689,
      "##åga": 2690,
      "tillgång": 2691,
      "koll": 2692,
      "riks": 2693,
      "nemligen": 2694,
      "brist": 2695,
      "tillsammans": 2696,
      "sammanträ": 2697,
      "ämnet": 2698,
      "##smål": 2699,
      "spel": 2700,
      "##iet": 2701,
      "effek": 2702,
      "behöva": 2703,
      "##höll": 2704,
      "februari": 2705,
      "##pri": 2706,
      "##ökt": 2707,
      "aktu": 2708,
      "uppmärksamhet": 2709,
      "kostnader": 2710,
      "vpk": 2711,
      "erfarenhet": 2712,
      "##rätten": 2713,
      "##öta": 2714,
      "hy": 2715,
      "##unt": 2716,
      "överväg": 2717,
      "ordning": 2718,
      "##ruktur": 2719,
      "energi": 2720,
      "åstadkomma": 2721,
      "Statsrådet": 2722,
      "nöj": 2723,
      "liten": 2724,
      "Fredagen": 2725,
      "##örj": 2726,
      "ansåg": 2727,
      "egendom": 2728,
      "Nilsson": 2729,
      "fanns": 2730,
      "##sel": 2731,
      "te": 2732,
      "steg": 2733,
      "allra": 2734,
      "förutsättningar": 2735,
      "förhållandet": 2736,
      "Första": 2737,
      "fyra": 2738,
      "särskild": 2739,
      "##räng": 2740,
      "inrätt": 2741,
      "va": 2742,
      "stu": 2743,
      "regel": 2744,
      "skrivelse": 2745,
      "##verks": 2746,
      "),": 2747,
      "vägen": 2748,
      "##itets": 2749,
      "rätta": 2750,
      "arbeta": 2751,
      "##fver": 2752,
      "ab": 2753,
      "äldre": 2754,
      "tillhör": 2755,
      "##skatten": 2756,
      "##verkan": 2757,
      "##iver": 2758,
      "befolk": 2759,
      "allmänhet": 2760,
      "Tisdagen": 2761,
      "kont": 2762,
      "insk": 2763,
      "##lagda": 2764,
      "##kall": 2765,
      "##låt": 2766,
      "gav": 2767,
      "Riksdagens": 2768,
      "kyrk": 2769,
      "såvitt": 2770,
      "Göte": 2771,
      "Föredrogs": 2772,
      "föranled": 2773,
      "ås": 2774,
      "##ika": 2775,
      "##tagit": 2776,
      "##smedel": 2777,
      "##lands": 2778,
      "##istånd": 2779,
      "ställer": 2780,
      "##ccep": 2781,
      "nästan": 2782,
      "propositioner": 2783,
      "avtal": 2784,
      "Erik": 2785,
      "Min": 2786,
      "snart": 2787,
      "rel": 2788,
      "mis": 2789,
      "##propositionen": 2790,
      "##bud": 2791,
      "##spolitik": 2792,
      "Över": 2793,
      "##lin": 2794,
      "tot": 2795,
      "tillå": 2796,
      "talet": 2797,
      "ma": 2798,
      "utanför": 2799,
      "redovis": 2800,
      "Låt": 2801,
      "kärn": 2802,
      "##plats": 2803,
      "##rum": 2804,
      "läge": 2805,
      "##mål": 2806,
      "ålder": 2807,
      "finansi": 2808,
      "detsamma": 2809,
      "fullständ": 2810,
      "bruk": 2811,
      "elever": 2812,
      "situationen": 2813,
      "transp": 2814,
      "arbetsgi": 2815,
      "Vän": 2816,
      "##andena": 2817,
      "##ogs": 2818,
      "landsbyg": 2819,
      "vederbörande": 2820,
      "uppfattningen": 2821,
      "förmån": 2822,
      "socialdemokratiska": 2823,
      "##arti": 2824,
      "##teck": 2825,
      "delen": 2826,
      "##sav": 2827,
      "##ordning": 2828,
      "enkelt": 2829,
      "fred": 2830,
      "utnytt": 2831,
      "undantag": 2832,
      "ärenden": 2833,
      "##bered": 2834,
      "##ttag": 2835,
      "försälj": 2836,
      "dyr": 2837,
      "våg": 2838,
      "##stra": 2839,
      "##inder": 2840,
      "##delning": 2841,
      "Göteborg": 2842,
      "forts": 2843,
      "känna": 2844,
      "internationella": 2845,
      "##kommit": 2846,
      "makt": 2847,
      "bild": 2848,
      "landsting": 2849,
      "ad": 2850,
      "framhåll": 2851,
      "materi": 2852,
      "##agraf": 2853,
      "nära": 2854,
      "lant": 2855,
      "##sv": 2856,
      "##usta": 2857,
      "sjel": 2858,
      "eng": 2859,
      "arbetslöshet": 2860,
      "förändring": 2861,
      "##arie": 2862,
      "##fallet": 2863,
      "##värr": 2864,
      "regler": 2865,
      "alterna": 2866,
      "kammare": 2867,
      "bakgru": 2868,
      "olyck": 2869,
      "##klart": 2870,
      "skogs": 2871,
      "Socialdemokraterna": 2872,
      "domstol": 2873,
      "svårigheter": 2874,
      "synnerligen": 2875,
      "##emang": 2876,
      "stark": 2877,
      "##junkt": 2878,
      "roll": 2879,
      "##rip": 2880,
      "initi": 2881,
      "anfört": 2882,
      "därvid": 2883,
      "avgörande": 2884,
      "nämnda": 2885,
      "skär": 2886,
      "##eb": 2887,
      "förhållandena": 2888,
      "##imat": 2889,
      "uppre": 2890,
      "##lades": 2891,
      "##ög": 2892,
      "arg": 2893,
      "vare": 2894,
      "samhälle": 2895,
      "gransk": 2896,
      "tax": 2897,
      "##stal": 2898,
      "konf": 2899,
      "##öder": 2900,
      "inga": 2901,
      "post": 2902,
      "utgör": 2903,
      "föreslår": 2904,
      "##sol": 2905,
      "utgå": 2906,
      "##dde": 2907,
      "rent": 2908,
      "leda": 2909,
      "##ab": 2910,
      "besluta": 2911,
      "upprätt": 2912,
      "myndigheter": 2913,
      "betydande": 2914,
      "verksamheten": 2915,
      "sex": 2916,
      "##--": 2917,
      "innebära": 2918,
      "60": 2919,
      "fack": 2920,
      "förvalt": 2921,
      "trygg": 2922,
      "90": 2923,
      "##jö": 2924,
      "säkert": 2925,
      "användas": 2926,
      "starkt": 2927,
      "##splan": 2928,
      "betydligt": 2929,
      "omk": 2930,
      "by": 2931,
      "samtliga": 2932,
      "beklag": 2933,
      "exempelvis": 2934,
      "Miljö": 2935,
      "anslut": 2936,
      "bem": 2937,
      "börja": 2938,
      "höra": 2939,
      "påpek": 2940,
      "konsum": 2941,
      "bit": 2942,
      "dagar": 2943,
      "##medel": 2944,
      "##inst": 2945,
      "yrkes": 2946,
      "##bara": 2947,
      "##tygad": 2948,
      "diskutera": 2949,
      "bred": 2950,
      "lösning": 2951,
      "effektiv": 2952,
      "##råden": 2953,
      "gälla": 2954,
      "##ält": 2955,
      "bo": 2956,
      "##alis": 2957,
      "32": 2958,
      "lägre": 2959,
      "klass": 2960,
      "fastighet": 2961,
      "##ers": 2962,
      "##kl": 2963,
      "pres": 2964,
      "häv": 2965,
      "##skriv": 2966,
      "oerhört": 2967,
      "höger": 2968,
      "konkurrens": 2969,
      "statsutskottet": 2970,
      "Lund": 2971,
      "##faller": 2972,
      "nämnde": 2973,
      "tillstånd": 2974,
      "förändra": 2975,
      "omöj": 2976,
      "flesta": 2977,
      "tving": 2978,
      "sociala": 2979,
      "givetvis": 2980,
      "oför": 2981,
      "##betal": 2982,
      "inträff": 2983,
      "san": 2984,
      "ordförande": 2985,
      "».": 2986,
      "##erande": 2987,
      "34": 2988,
      "finansministern": 2989,
      "##itté": 2990,
      "kommunik": 2991,
      "38": 2992,
      "skick": 2993,
      "rapp": 2994,
      "##ssss": 2995,
      "bistånd": 2996,
      "föra": 2997,
      "statsutskottets": 2998,
      "märk": 2999,
      "åtskilliga": 3000,
      "##spolitiken": 3001,
      "Europa": 3002,
      "##itut": 3003,
      "33": 3004,
      "lärare": 3005,
      "bevillnings": 3006,
      "opp": 3007,
      "skilj": 3008,
      "möjligheten": 3009,
      "##unda": 3010,
      "export": 3011,
      "accep": 3012,
      "kring": 3013,
      "lösa": 3014,
      "frågorna": 3015,
      "Gusta": 3016,
      "lever": 3017,
      "affär": 3018,
      "Komm": 3019,
      "framtid": 3020,
      "samarbete": 3021,
      "besvär": 3022,
      "hvilket": 3023,
      "##läggande": 3024,
      "beroende": 3025,
      "op": 3026,
      "värn": 3027,
      "program": 3028,
      "begärde": 3029,
      "##ärka": 3030,
      "Vänster": 3031,
      "fortsatt": 3032,
      "grundlag": 3033,
      "tim": 3034,
      "##äss": 3035,
      "##politiska": 3036,
      "ram": 3037,
      "##från": 3038,
      "##dera": 3039,
      "##fvud": 3040,
      "offentliga": 3041,
      "##junktur": 3042,
      "##ia": 3043,
      "företagen": 3044,
      "##sning": 3045,
      "Kammarens": 3046,
      "##ioner": 3047,
      "Dess": 3048,
      "anslaget": 3049,
      "##jänst": 3050,
      "sök": 3051,
      "paragraf": 3052,
      "##enskomm": 3053,
      "##tar": 3054,
      "--": 3055,
      "##byggnad": 3056,
      "##tande": 3057,
      "##ror": 3058,
      "Malm": 3059,
      "ekonomisk": 3060,
      "ban": 3061,
      "36": 3062,
      "##kten": 3063,
      "##ligheter": 3064,
      "Upp": 3065,
      "##dustrin": 3066,
      "förhopp": 3067,
      "träff": 3068,
      "gott": 3069,
      "vänt": 3070,
      "##soch": 3071,
      "detal": 3072,
      "folket": 3073,
      "åber": 3074,
      "##rand": 3075,
      "ligga": 3076,
      "främst": 3077,
      "##andra": 3078,
      "##giften": 3079,
      "##anti": 3080,
      "beredd": 3081,
      "drag": 3082,
      "konstitutions": 3083,
      "##ina": 3084,
      "##OR": 3085,
      "tillstyr": 3086,
      "##företag": 3087,
      "reson": 3088,
      "öre": 3089,
      "understry": 3090,
      "hot": 3091,
      "##ivers": 3092,
      "tjen": 3093,
      "##skost": 3094,
      "tas": 3095,
      "##ober": 3096,
      "Prot": 3097,
      "##fören": 3098,
      "##joritet": 3099,
      "sän": 3100,
      "anförde": 3101,
      "diskuter": 3102,
      "##värtom": 3103,
      "##vad": 3104,
      "##genom": 3105,
      "##ännen": 3106,
      "##serna": 3107,
      "anställda": 3108,
      "##elsens": 3109,
      "intressen": 3110,
      "##lett": 3111,
      "##AL": 3112,
      "aktiv": 3113,
      "37": 3114,
      "initiativ": 3115,
      "arbetsmarknaden": 3116,
      "##ational": 3117,
      "Lag": 3118,
      "##änkning": 3119,
      "orsak": 3120,
      "##ittén": 3121,
      "##sre": 3122,
      "syft": 3123,
      "omröstning": 3124,
      "tel": 3125,
      "Lars": 3126,
      "##bruks": 3127,
      "##aga": 3128,
      "##kunn": 3129,
      "vål": 3130,
      "##plikt": 3131,
      "##entar": 3132,
      "gick": 3133,
      "45": 3134,
      "##vande": 3135,
      "Berg": 3136,
      "kompet": 3137,
      "##rust": 3138,
      "##rym": 3139,
      "dagens": 3140,
      "##ventu": 3141,
      "gjorts": 3142,
      "beror": 3143,
      "intressant": 3144,
      "höga": 3145,
      "Ch": 3146,
      "framgår": 3147,
      "##kommer": 3148,
      "tryck": 3149,
      "##ställa": 3150,
      "Frå": 3151,
      "rättigheter": 3152,
      "prop": 3153,
      "hyres": 3154,
      "##emori": 3155,
      "Anmäl": 3156,
      "met": 3157,
      "uppf": 3158,
      "##åd": 3159,
      "##ställd": 3160,
      "utbildnings": 3161,
      "hist": 3162,
      "motsvarande": 3163,
      "grunder": 3164,
      "bill": 3165,
      "förändringar": 3166,
      "förtro": 3167,
      "eventu": 3168,
      "prof": 3169,
      "försäkring": 3170,
      "##illa": 3171,
      "utform": 3172,
      "univers": 3173,
      "rek": 3174,
      "##ron": 3175,
      "öfr": 3176,
      "##slaget": 3177,
      "partier": 3178,
      "eget": 3179,
      "##art": 3180,
      "tjänstem": 3181,
      "##byg": 3182,
      "Varför": 3183,
      "##fråga": 3184,
      "förste": 3185,
      "##anser": 3186,
      "anmärk": 3187,
      "##öma": 3188,
      "arbetsmarknad": 3189,
      "besked": 3190,
      "##frihet": 3191,
      "##oden": 3192,
      "##eng": 3193,
      "##visor": 3194,
      "gym": 3195,
      "anse": 3196,
      "satt": 3197,
      "norm": 3198,
      "omfattande": 3199,
      "kostnaderna": 3200,
      "##undet": 3201,
      "Bet": 3202,
      "mänsk": 3203,
      "500": 3204,
      ".;": 3205,
      "39": 3206,
      "##mannen": 3207,
      "skatter": 3208,
      "lämpligt": 3209,
      "författ": 3210,
      "skrifv": 3211,
      "##ängd": 3212,
      "räck": 3213,
      "Th": 3214,
      "medan": 3215,
      "##rr": 3216,
      "##sn": 3217,
      "okt": 3218,
      "on": 3219,
      "utför": 3220,
      "igenom": 3221,
      "inget": 3222,
      "hufvud": 3223,
      "politiken": 3224,
      "opposition": 3225,
      "##debatt": 3226,
      "medvet": 3227,
      "##bott": 3228,
      "##indra": 3229,
      "gjorda": 3230,
      "Punkt": 3231,
      "arbetskraft": 3232,
      "däremot": 3233,
      "uttala": 3234,
      "FN": 3235,
      "kvinn": 3236,
      "berörda": 3237,
      "fi": 3238,
      "Ju": 3239,
      "##följ": 3240,
      "dis": 3241,
      "vägar": 3242,
      "månad": 3243,
      "klimat": 3244,
      "center": 3245,
      "socialdemokraterna": 3246,
      "##IL": 3247,
      "närmast": 3248,
      "central": 3249,
      "statsbidrag": 3250,
      "ledamot": 3251,
      "##rev": 3252,
      "vågar": 3253,
      "##samt": 3254,
      "infly": 3255,
      "fatta": 3256,
      "Nord": 3257,
      "##sförs": 3258,
      "begärt": 3259,
      "slutad": 3260,
      "talade": 3261,
      "utgångsp": 3262,
      "##ändska": 3263,
      "##erings": 3264,
      "systemet": 3265,
      "70": 3266,
      "42": 3267,
      "ring": 3268,
      "högst": 3269,
      "##mande": 3270,
      "information": 3271,
      "omkring": 3272,
      "##väsendet": 3273,
      "##ERG": 3274,
      "##juk": 3275,
      "Ny": 3276,
      "forskning": 3277,
      "behovet": 3278,
      "##ilt": 3279,
      "##ard": 3280,
      "Folk": 3281,
      "##SA": 3282,
      "bespar": 3283,
      "##nämnda": 3284,
      "statsministern": 3285,
      "##iva": 3286,
      "##ux": 3287,
      "##lek": 3288,
      "oktober": 3289,
      "##stiden": 3290,
      "##verkets": 3291,
      "Olsson": 3292,
      "landets": 3293,
      "innehåll": 3294,
      "pågår": 3295,
      "Från": 3296,
      "alko": 3297,
      "##sättnings": 3298,
      "nivå": 3299,
      "##len": 3300,
      "##skyld": 3301,
      "April": 3302,
      "skyd": 3303,
      "ökar": 3304,
      "rösta": 3305,
      "##ödet": 3306,
      "myndighet": 3307,
      "uppn": 3308,
      "88": 3309,
      "ärende": 3310,
      "##nsam": 3311,
      "säm": 3312,
      "Dan": 3313,
      "motivering": 3314,
      "konkret": 3315,
      "##ägg": 3316,
      "rimligt": 3317,
      "##förhåll": 3318,
      "alternativ": 3319,
      "##lats": 3320,
      "Förs": 3321,
      "snabbt": 3322,
      "inrikt": 3323,
      "händer": 3324,
      "##ement": 3325,
      "erhålla": 3326,
      "sysselsättning": 3327,
      "regerings": 3328,
      "##mäkt": 3329,
      "läget": 3330,
      "bid": 3331,
      "platser": 3332,
      "understöd": 3333,
      "förvär": 3334,
      "betyder": 3335,
      "##kter": 3336,
      "41": 3337,
      "##räda": 3338,
      "and": 3339,
      "##utred": 3340,
      "föremål": 3341,
      "##språk": 3342,
      "möjligen": 3343,
      "Dessutom": 3344,
      "Lar": 3345,
      "##unkterna": 3346,
      "##ark": 3347,
      "tio": 3348,
      "##ban": 3349,
      "bri": 3350,
      "förefaller": 3351,
      "befatt": 3352,
      "##stöd": 3353,
      "##spr": 3354,
      "##vill": 3355,
      "bibe": 3356,
      "lem": 3357,
      "räkna": 3358,
      "regional": 3359,
      "##örer": 3360,
      "övervägande": 3361,
      "##skydd": 3362,
      "Kan": 3363,
      "nord": 3364,
      "beträffar": 3365,
      "Stat": 3366,
      "uppläst": 3367,
      "##ånga": 3368,
      "högsta": 3369,
      "##partiets": 3370,
      "jem": 3371,
      "##lagt": 3372,
      "angeläget": 3373,
      "föreskri": 3374,
      "punkter": 3375,
      "knappast": 3376,
      "Vä": 3377,
      "rätts": 3378,
      "skaff": 3379,
      "räd": 3380,
      "Res": 3381,
      "produ": 3382,
      "##smajoritet": 3383,
      "omfattning": 3384,
      "tillväx": 3385,
      "##ött": 3386,
      "problemet": 3387,
      "långsikt": 3388,
      "79": 3389,
      "gången": 3390,
      "##uter": 3391,
      "Björ": 3392,
      "##råde": 3393,
      "##fäll": 3394,
      "närings": 3395,
      "jern": 3396,
      "Center": 3397,
      "nämna": 3398,
      "jordbruket": 3399,
      "##verksamheten": 3400,
      "##ians": 3401,
      "bostads": 3402,
      "skil": 3403,
      "utgifter": 3404,
      "råder": 3405,
      "köp": 3406,
      "rän": 3407,
      "lands": 3408,
      "hört": 3409,
      "kred": 3410,
      "##skolor": 3411,
      "##äkra": 3412,
      "##tek": 3413,
      "tu": 3414,
      "190": 3415,
      "djur": 3416,
      "##rarna": 3417,
      "kritik": 3418,
      "löner": 3419,
      "utlåtandet": 3420,
      "hemställa": 3421,
      "militär": 3422,
      "huvudsak": 3423,
      "skap": 3424,
      "##ingarna": 3425,
      "enlighet": 3426,
      "El": 3427,
      "grän": 3428,
      "ordin": 3429,
      "sum": 3430,
      "Persson": 3431,
      "länderna": 3432,
      "##läggningar": 3433,
      "genomföra": 3434,
      "ungdomar": 3435,
      "##icin": 3436,
      "medföra": 3437,
      "##sproposition": 3438,
      "obe": 3439,
      "ärendet": 3440,
      "##sled": 3441,
      "fm": 3442,
      "Al": 3443,
      "produktion": 3444,
      "funnit": 3445,
      "##ng": 3446,
      "##oms": 3447,
      "ändringar": 3448,
      "försöker": 3449,
      "gällde": 3450,
      "afslag": 3451,
      "vapen": 3452,
      "slå": 3453,
      "gläd": 3454,
      "##ydande": 3455,
      "begäran": 3456,
      "di": 3457,
      "lagutskottets": 3458,
      "behöv": 3459,
      "kommande": 3460,
      "##ivid": 3461,
      "##issionen": 3462,
      "engag": 3463,
      "ekonomiskt": 3464,
      "tolk": 3465,
      "uts": 3466,
      "läro": 3467,
      "sol": 3468,
      "##oder": 3469,
      "argument": 3470,
      "ändrad": 3471,
      "förny": 3472,
      "Mars": 3473,
      "framhålla": 3474,
      "Stockholms": 3475,
      "ställt": 3476,
      "##slå": 3477,
      "inkomster": 3478,
      "43": 3479,
      "igen": 3480,
      "leder": 3481,
      "JO": 3482,
      "best": 3483,
      "priori": 3484,
      "##höj": 3485,
      "kor": 3486,
      "Malmö": 3487,
      "kräver": 3488,
      "utlåtanden": 3489,
      "läsa": 3490,
      "Moderat": 3491,
      "medför": 3492,
      "månader": 3493,
      "privata": 3494,
      "bevis": 3495,
      "beakt": 3496,
      "förklarade": 3497,
      "##pass": 3498,
      "su": 3499,
      "##mak": 3500,
      "##entligt": 3501,
      "unga": 3502,
      "press": 3503,
      "lagstiftningen": 3504,
      "flykt": 3505,
      "hushåll": 3506,
      "##onden": 3507,
      "krävs": 3508,
      "Någ": 3509,
      "förbättra": 3510,
      "övertygad": 3511,
      "gymnas": 3512,
      "##kast": 3513,
      "##ningsvis": 3514,
      "ekonomi": 3515,
      "gemensamma": 3516,
      "individ": 3517,
      "möjligheterna": 3518,
      "svara": 3519,
      "självklart": 3520,
      "Vänsterpartiet": 3521,
      "Hans": 3522,
      "##när": 3523,
      "##ungen": 3524,
      "principi": 3525,
      "##minist": 3526,
      "tänkt": 3527,
      "utgår": 3528,
      "riksb": 3529,
      "stan": 3530,
      "grupper": 3531,
      "Frågan": 3532,
      "verka": 3533,
      "SD": 3534,
      "anvis": 3535,
      "arbetsmarknads": 3536,
      "riktning": 3537,
      "yttra": 3538,
      "AND": 3539,
      "##qvist": 3540,
      "ordinarie": 3541,
      "utveckla": 3542,
      "följer": 3543,
      "mång": 3544,
      "##ytt": 3545,
      "##produk": 3546,
      "ager": 3547,
      "##gon": 3548,
      "upptag": 3549,
      "##försäkring": 3550,
      "Beng": 3551,
      "ham": 3552,
      "##lac": 3553,
      "chefen": 3554,
      "lägger": 3555,
      "fartyg": 3556,
      "##räk": 3557,
      "##säker": 3558,
      "##skontor": 3559,
      "##pension": 3560,
      "##spek": 3561,
      "arbetare": 3562,
      "ansvaret": 3563,
      "##oss": 3564,
      "##ämpa": 3565,
      "begära": 3566,
      "ibland": 3567,
      "sju": 3568,
      "skattes": 3569,
      "starka": 3570,
      "vänta": 3571,
      "parlam": 3572,
      "44": 3573,
      "lu": 3574,
      "Genom": 3575,
      "##fullt": 3576,
      "Ni": 3577,
      "redog": 3578,
      "kompetens": 3579,
      "ökning": 3580,
      "införa": 3581,
      "behandlas": 3582,
      "tyvärr": 3583,
      "Överläggningen": 3584,
      "##handel": 3585,
      "##rivill": 3586,
      "kat": 3587,
      "tillfredsställande": 3588,
      "vitt": 3589,
      "48": 3590,
      "enbart": 3591,
      "Norrland": 3592,
      "sektor": 3593,
      "blef": 3594,
      "##istiska": 3595,
      "projekt": 3596,
      "##veckling": 3597,
      "lyss": 3598,
      "##atta": 3599,
      "##ministerns": 3600,
      "Arbets": 3601,
      "##åtgär": 3602,
      "##dens": 3603,
      "uppstå": 3604,
      "46": 3605,
      "ihop": 3606,
      "Larsson": 3607,
      "förd": 3608,
      "85": 3609,
      "##öts": 3610,
      "##stik": 3611,
      "alkohol": 3612,
      "##sg": 3613,
      "hjälpa": 3614,
      "tydligen": 3615,
      "87": 3616,
      "##ET": 3617,
      "fria": 3618,
      "livsmedel": 3619,
      "Hel": 3620,
      "föreslås": 3621,
      "resultatet": 3622,
      "##OL": 3623,
      "vinna": 3624,
      "röster": 3625,
      "brän": 3626,
      "1978": 3627,
      "bry": 3628,
      "##alen": 3629,
      "##nyo": 3630,
      "##fl": 3631,
      "##jud": 3632,
      "höjning": 3633,
      "##struktur": 3634,
      "ånyo": 3635,
      "##kännag": 3636,
      "Har": 3637,
      "##dell": 3638,
      "godkändes": 3639,
      "färd": 3640,
      "##plan": 3641,
      "diskussionen": 3642,
      "##området": 3643,
      "näringslivet": 3644,
      "skillnad": 3645,
      "förordning": 3646,
      "##röv": 3647,
      "exp": 3648,
      "##kännande": 3649,
      "65": 3650,
      "##steg": 3651,
      "verket": 3652,
      "understryka": 3653,
      "lagt": 3654,
      "Just": 3655,
      "##vision": 3656,
      "helhet": 3657,
      "heter": 3658,
      "erkän": 3659,
      "pek": 3660,
      "Öster": 3661,
      "##ansch": 3662,
      "hvarje": 3663,
      "väsentligt": 3664,
      "jernväg": 3665,
      "Däremot": 3666,
      "##ägare": 3667,
      "runt": 3668,
      "tillägg": 3669,
      "vari": 3670,
      "##utbildning": 3671,
      "Svensson": 3672,
      "sock": 3673,
      "##visningen": 3674,
      "##eraf": 3675,
      "##sättas": 3676,
      "organisationer": 3677,
      "frihet": 3678,
      "bal": 3679,
      "##BERG": 3680,
      "##jup": 3681,
      "47": 3682,
      "berättig": 3683,
      "höja": 3684,
      "voro": 3685,
      "##trafik": 3686,
      "militära": 3687,
      "liknande": 3688,
      "förekommer": 3689,
      "fjol": 3690,
      "möjliga": 3691,
      "MP": 3692,
      "överenskomm": 3693,
      "Mom": 3694,
      "##äkringen": 3695,
      "##teringen": 3696,
      "##emedel": 3697,
      "orätt": 3698,
      "##ÖR": 3699,
      "absol": 3700,
      "tillkännag": 3701,
      "##dern": 3702,
      "undrar": 3703,
      "##STR": 3704,
      "innevarande": 3705,
      "förtroende": 3706,
      "förlor": 3707,
      "##gin": 3708,
      "##ERSSON": 3709,
      "##kommande": 3710,
      "varandra": 3711,
      "Hvad": 3712,
      "marknad": 3713,
      "##uld": 3714,
      "förordningen": 3715,
      "framtida": 3716,
      "##ald": 3717,
      "sann": 3718,
      "vigt": 3719,
      "##vi": 3720,
      "1980": 3721,
      "##arin": 3722,
      "ren": 3723,
      "skrifvelse": 3724,
      "förutsättning": 3725,
      "##gr": 3726,
      "arbetsgivar": 3727,
      "86": 3728,
      "upph": 3729,
      "##skola": 3730,
      "linje": 3731,
      "sammanhanget": 3732,
      "75": 3733,
      "försam": 3734,
      "stati": 3735,
      "försäljning": 3736,
      "Nor": 3737,
      "absolut": 3738,
      "ögon": 3739,
      "sn": 3740,
      "Gustaf": 3741,
      "uttalat": 3742,
      "##nämnden": 3743,
      "jul": 3744,
      "meningen": 3745,
      "välja": 3746,
      "utvid": 3747,
      "anspråk": 3748,
      "##vention": 3749,
      "vidta": 3750,
      "187": 3751,
      "frivill": 3752,
      "202": 3753,
      "##jär": 3754,
      "##ripa": 3755,
      "därigenom": 3756,
      "viktigaste": 3757,
      "statsverks": 3758,
      "ministern": 3759,
      "bekym": 3760,
      "rätten": 3761,
      "ges": 3762,
      "reservationer": 3763,
      "##rim": 3764,
      "profess": 3765,
      "no": 3766,
      "allmänt": 3767,
      "1979": 3768,
      "##klag": 3769,
      "tillfällen": 3770,
      "Krist": 3771,
      "##släpp": 3772,
      "beslutet": 3773,
      "besl": 3774,
      "frågat": 3775,
      "strä": 3776,
      "##fly": 3777,
      "anord": 3778,
      "oav": 3779,
      "översyn": 3780,
      "försäm": 3781,
      "##ssätt": 3782,
      "ner": 3783,
      "vinst": 3784,
      "##her": 3785,
      "1987": 3786,
      "talat": 3787,
      "##ke": 3788,
      "ot": 3789,
      "likal": 3790,
      "erb": 3791,
      "effekt": 3792,
      "##samhet": 3793,
      "##räm": 3794,
      "misst": 3795,
      "utö": 3796,
      "tvärtom": 3797,
      "##peiska": 3798,
      "55": 3799,
      "driv": 3800,
      "täck": 3801,
      "##ifrån": 3802,
      "##syk": 3803,
      "avdrag": 3804,
      "##emorial": 3805,
      "bedri": 3806,
      "särskildt": 3807,
      "positivt": 3808,
      "##spolitiska": 3809,
      "##örd": 3810,
      "gräns": 3811,
      "Miljöpartiet": 3812,
      "##gick": 3813,
      "numera": 3814,
      "vux": 3815,
      "##ex": 3816,
      "åberop": 3817,
      "mp": 3818,
      "##ric": 3819,
      "##rit": 3820,
      "##unnit": 3821,
      "vidtag": 3822,
      "uteslut": 3823,
      "anst": 3824,
      "kostnad": 3825,
      "känn": 3826,
      "##skjut": 3827,
      "utifrån": 3828,
      "verkar": 3829,
      "uppenbart": 3830,
      "##ater": 3831,
      "##ission": 3832,
      "mänskliga": 3833,
      "##spektiv": 3834,
      "låter": 3835,
      "96": 3836,
      "tillverk": 3837,
      "fördelning": 3838,
      "underl": 3839,
      "bas": 3840,
      "Alla": 3841,
      "ak": 3842,
      "Tro": 3843,
      "##vo": 3844,
      "deraf": 3845,
      "börjar": 3846,
      "gyn": 3847,
      "jämte": 3848,
      "våld": 3849,
      "upple": 3850,
      "##kommen": 3851,
      "leva": 3852,
      "##stod": 3853,
      "inled": 3854,
      "fullständigt": 3855,
      "inflytande": 3856,
      "givit": 3857,
      "##NN": 3858,
      "##erats": 3859,
      "svåra": 3860,
      "Hag": 3861,
      "##etter": 3862,
      "##makterna": 3863,
      "presenter": 3864,
      "##ningsha": 3865,
      "kur": 3866,
      "sub": 3867,
      "##sbygg": 3868,
      "företräd": 3869,
      "##huru": 3870,
      "nor": 3871,
      "Samtidigt": 3872,
      "detalj": 3873,
      "##jöl": 3874,
      "##edom": 3875,
      "förhandlingar": 3876,
      "##äs": 3877,
      "ständ": 3878,
      "ton": 3879,
      "##mul": 3880,
      "ide": 3881,
      "bakgrund": 3882,
      "##yll": 3883,
      "reda": 3884,
      "banko": 3885,
      "säkerligen": 3886,
      "medicin": 3887,
      "siffror": 3888,
      "##garna": 3889,
      "49": 3890,
      "undervisning": 3891,
      "omedel": 3892,
      "bygger": 3893,
      "##hän": 3894,
      "##äderna": 3895,
      "utskottsmajoritet": 3896,
      "##ona": 3897,
      "barnen": 3898,
      "kol": 3899,
      "sämre": 3900,
      "behandlingen": 3901,
      "##vara": 3902,
      "hållet": 3903,
      "##fer": 3904,
      "byggnad": 3905,
      "##ssam": 3906,
      "önska": 3907,
      "undersökning": 3908,
      "##delningen": 3909,
      "önskemål": 3910,
      "möjlig": 3911,
      "stimul": 3912,
      "landsbygden": 3913,
      "##orn": 3914,
      "driva": 3915,
      "funk": 3916,
      "76": 3917,
      "##UND": 3918,
      "utgångspunkt": 3919,
      "Vil": 3920,
      "skolor": 3921,
      "institu": 3922,
      "delvis": 3923,
      "Ing": 3924,
      "kärnkraft": 3925,
      "##satsen": 3926,
      "invand": 3927,
      "##släg": 3928,
      "##stagande": 3929,
      "resp": 3930,
      "föreslå": 3931,
      "fungerar": 3932,
      "ST": 3933,
      "52": 3934,
      "81": 3935,
      "##ÖM": 3936,
      "skaffa": 3937,
      "real": 3938,
      "Många": 3939,
      "##tas": 3940,
      "##kar": 3941,
      "##ford": 3942,
      "##ingens": 3943,
      "Gör": 3944,
      "##inkom": 3945,
      "antaga": 3946,
      "fästa": 3947,
      "»,": 3948,
      "Svenska": 3949,
      "##aktigt": 3950,
      "von": 3951,
      "Olof": 3952,
      "sed": 3953,
      "medborgare": 3954,
      "##AS": 3955,
      "flertalet": 3956,
      "rapport": 3957,
      "prövning": 3958,
      "avslutad": 3959,
      "##peka": 3960,
      "utomord": 3961,
      "komplett": 3962,
      "sikt": 3963,
      "##nars": 3964,
      "omöjligt": 3965,
      "investeringar": 3966,
      "intet": 3967,
      "besvarad": 3968,
      "bäst": 3969,
      "avskaff": 3970,
      "amb": 3971,
      "bestämma": 3972,
      "arm": 3973,
      "##mäktige": 3974,
      "##ration": 3975,
      "formul": 3976,
      "##kost": 3977,
      "anal": 3978,
      "1985": 3979,
      "##rycket": 3980,
      "högt": 3981,
      "utredningar": 3982,
      "finge": 3983,
      "##ssystemet": 3984,
      "##stämmelse": 3985,
      "##styrelsens": 3986,
      "ko": 3987,
      "##temot": 3988,
      "Norg": 3989,
      "##lad": 3990,
      "##sanslag": 3991,
      "##agn": 3992,
      "##enterna": 3993,
      "mat": 3994,
      "föredragning": 3995,
      "hinder": 3996,
      "påpeka": 3997,
      "önskar": 3998,
      "beredskap": 3999,
      "öppna": 4000,
      "departementsch": 4001,
      "Månd": 4002,
      "##lut": 4003,
      "##slös": 4004,
      "Hol": 4005,
      "Interpellation": 4006,
      "trygghet": 4007,
      "likhet": 4008,
      "sakkunn": 4009,
      "problemen": 4010,
      "##ref": 4011,
      "brukar": 4012,
      "##dar": 4013,
      "utgöra": 4014,
      "Måndagen": 4015,
      "53": 4016,
      "verkligheten": 4017,
      "omständigheter": 4018,
      "##ism": 4019,
      "##blick": 4020,
      "##edda": 4021,
      "##ssan": 4022,
      "orim": 4023,
      "JOH": 4024,
      "##kas": 4025,
      "inlägg": 4026,
      "188": 4027,
      "Vår": 4028,
      "ingå": 4029,
      "##sterades": 4030,
      "faktum": 4031,
      "tider": 4032,
      "##räffande": 4033,
      "skyldighet": 4034,
      "##rörelsen": 4035,
      "oblig": 4036,
      "##givna": 4037,
      "1975": 4038,
      "##egl": 4039,
      "instämma": 4040,
      "Finans": 4041,
      "framgång": 4042,
      "Angående": 4043,
      "förbud": 4044,
      "82": 4045,
      "byggnads": 4046,
      "bedriv": 4047,
      "slags": 4048,
      "självfallet": 4049,
      "##ester": 4050,
      "##ierna": 4051,
      "motionären": 4052,
      "justitiemin": 4053,
      "##givit": 4054,
      "##formen": 4055,
      "##edermera": 4056,
      "tillgäng": 4057,
      "84": 4058,
      "##ativt": 4059,
      "anslutning": 4060,
      ".........": 4061,
      "bordlades": 4062,
      "ca": 4063,
      "frågar": 4064,
      "Vinner": 4065,
      "partierna": 4066,
      "uttalanden": 4067,
      "##försvar": 4068,
      "varor": 4069,
      "långa": 4070,
      "förel": 4071,
      "import": 4072,
      "##sparti": 4073,
      "##sekonom": 4074,
      "kommunikations": 4075,
      "närmaste": 4076,
      "tills": 4077,
      "##hlin": 4078,
      "##vecklingen": 4079,
      "Er": 4080,
      "##ögen": 4081,
      "undvik": 4082,
      "stärka": 4083,
      "grundläggande": 4084,
      "föranleda": 4085,
      "likväl": 4086,
      "##örsmål": 4087,
      "oläg": 4088,
      "lagförslag": 4089,
      "död": 4090,
      "Peter": 4091,
      "genmäl": 4092,
      "typ": 4093,
      "återkomma": 4094,
      "dit": 4095,
      "kredit": 4096,
      "Punkten": 4097,
      "89": 4098,
      "administ": 4099,
      "dagen": 4100,
      "##ställda": 4101,
      "Beträffande": 4102,
      "Söder": 4103,
      "##bef": 4104,
      "utskotts": 4105,
      "##jas": 4106,
      "bekant": 4107,
      "memorial": 4108,
      "##skapet": 4109,
      "erfor": 4110,
      "189": 4111,
      "##lagen": 4112,
      "garanti": 4113,
      "euro": 4114,
      "nega": 4115,
      "##ärer": 4116,
      "51": 4117,
      "ansök": 4118,
      "tillväxt": 4119,
      "78": 4120,
      "fjär": 4121,
      "kör": 4122,
      "reglering": 4123,
      "##ogade": 4124,
      "höst": 4125,
      "##STRÖM": 4126,
      "Em": 4127,
      "83": 4128,
      "##ipp": 4129,
      "jämställd": 4130,
      "begag": 4131,
      "förfog": 4132,
      "##akter": 4133,
      "bedöma": 4134,
      "värnplikt": 4135,
      "inskr": 4136,
      "innefatt": 4137,
      "underlätt": 4138,
      "Mar": 4139,
      "fullkom": 4140,
      "sannol": 4141,
      "sek": 4142,
      "##iter": 4143,
      "konsekvenser": 4144,
      "##delser": 4145,
      "avlö": 4146,
      "underhåll": 4147,
      "##orer": 4148,
      "förmod": 4149,
      "##ys": 4150,
      "stäm": 4151,
      "påverk": 4152,
      "Tal": 4153,
      "##ös": 4154,
      "krimin": 4155,
      "Hu": 4156,
      "framåt": 4157,
      "lokala": 4158,
      "därefter": 4159,
      "##uti": 4160,
      "kraftigt": 4161,
      "uppnå": 4162,
      "arbetslösa": 4163,
      "tjänster": 4164,
      "transport": 4165,
      "##ligaste": 4166,
      "medlemmar": 4167,
      "sjukvård": 4168,
      "erforder": 4169,
      "Bengt": 4170,
      "funnits": 4171,
      "bedömning": 4172,
      "namn": 4173,
      "respek": 4174,
      "bär": 4175,
      "arbetslösheten": 4176,
      "innehåller": 4177,
      "genmäle": 4178,
      "skada": 4179,
      "material": 4180,
      "sammanträde": 4181,
      "sta": 4182,
      "##ANSSON": 4183,
      "Af": 4184,
      "##låta": 4185,
      "##reg": 4186,
      "of": 4187,
      "Fri": 4188,
      "dist": 4189,
      "##orp": 4190,
      "dylika": 4191,
      "kommitté": 4192,
      "anförda": 4193,
      "tacka": 4194,
      "300": 4195,
      "##igen": 4196,
      "samhällets": 4197,
      "fattig": 4198,
      "Moderaterna": 4199,
      "##alunda": 4200,
      "##ega": 4201,
      "nyligen": 4202,
      "invänd": 4203,
      "##ekan": 4204,
      "Skulle": 4205,
      "mängd": 4206,
      "Jan": 4207,
      "organ": 4208,
      "eta": 4209,
      "skatten": 4210,
      "fortsättningen": 4211,
      "näringsliv": 4212,
      "sjukdom": 4213,
      "funder": 4214,
      "sagts": 4215,
      "allvarligt": 4216,
      "1986": 4217,
      "hårt": 4218,
      "skapar": 4219,
      "lid": 4220,
      "godk": 4221,
      "##frågorna": 4222,
      "##tin": 4223,
      "representanter": 4224,
      "##tes": 4225,
      "##heter": 4226,
      "##jel": 4227,
      "gemensamt": 4228,
      "glad": 4229,
      "avsikt": 4230,
      "Norge": 4231,
      "köpa": 4232,
      "Mot": 4233,
      "##sla": 4234,
      "##istan": 4235,
      "uppenbar": 4236,
      "##värder": 4237,
      "huvudtit": 4238,
      "säl": 4239,
      "Bar": 4240,
      "hemma": 4241,
      "##upple": 4242,
      "beskaff": 4243,
      "flytt": 4244,
      "föräldrar": 4245,
      "statsverkspropositionen": 4246,
      "##mo": 4247,
      "granskning": 4248,
      "oms": 4249,
      "förekommit": 4250,
      "skjut": 4251,
      "äga": 4252,
      "anvisa": 4253,
      "oavsett": 4254,
      "bok": 4255,
      "deklar": 4256,
      "rest": 4257,
      "kd": 4258,
      "tekniska": 4259,
      "erk": 4260,
      "sked": 4261,
      "konta": 4262,
      "SJ": 4263,
      "Norrbott": 4264,
      "marknaden": 4265,
      "djup": 4266,
      "54": 4267,
      "tol": 4268,
      "nytta": 4269,
      "praktiska": 4270,
      "ingalunda": 4271,
      "riktlin": 4272,
      "Inte": 4273,
      "grunden": 4274,
      "dubb": 4275,
      "universitet": 4276,
      "derom": 4277,
      "infl": 4278,
      "organis": 4279,
      "justitie": 4280,
      "hundra": 4281,
      "##gången": 4282,
      "dvs": 4283,
      "andel": 4284,
      "1982": 4285,
      "56": 4286,
      "idrott": 4287,
      "psyk": 4288,
      "lagutskottet": 4289,
      "##ripande": 4290,
      "spörsmål": 4291,
      "##AG": 4292,
      "od": 4293,
      "tillfälliga": 4294,
      "årets": 4295,
      "kro": 4296,
      "tvång": 4297,
      "strid": 4298,
      "svenskt": 4299,
      "upplys": 4300,
      "##räkning": 4301,
      "##als": 4302,
      "erhåll": 4303,
      "##verken": 4304,
      "##ensom": 4305,
      "histori": 4306,
      "Holm": 4307,
      "pengarna": 4308,
      "##fulla": 4309,
      "##tagande": 4310,
      "##aler": 4311,
      "##öks": 4312,
      "tillämpas": 4313,
      "##åtgärder": 4314,
      "inställning": 4315,
      "därom": 4316,
      "vida": 4317,
      "##ivna": 4318,
      "hänseende": 4319,
      "praktiskt": 4320,
      "motstånd": 4321,
      "##eh": 4322,
      "##vice": 4323,
      "därav": 4324,
      "##jälp": 4325,
      "tillåter": 4326,
      "##ämt": 4327,
      "Reser": 4328,
      "påverka": 4329,
      "politisk": 4330,
      "ovan": 4331,
      "penning": 4332,
      "58": 4333,
      "kommunen": 4334,
      "ytterst": 4335,
      "##väga": 4336,
      "enskild": 4337,
      "##kla": 4338,
      "defin": 4339,
      "##edt": 4340,
      "##srätt": 4341,
      "däri": 4342,
      "stopp": 4343,
      "ansl": 4344,
      "former": 4345,
      "stödja": 4346,
      "po": 4347,
      "Anslag": 4348,
      "##dri": 4349,
      "verkställdes": 4350,
      "indrag": 4351,
      "slutligen": 4352,
      "bestämmelserna": 4353,
      "komme": 4354,
      "57": 4355,
      "vetenskap": 4356,
      "##ubb": 4357,
      "##anderätt": 4358,
      "Försvar": 4359,
      "ringa": 4360,
      "representer": 4361,
      "##MAN": 4362,
      "redogör": 4363,
      "myndigheterna": 4364,
      "befinner": 4365,
      "plac": 4366,
      "anhålla": 4367,
      "##ötes": 4368,
      "gentemot": 4369,
      "använder": 4370,
      "fortsätter": 4371,
      "process": 4372,
      "Jord": 4373,
      "Sund": 4374,
      "Konungen": 4375,
      "ehuru": 4376,
      "##rustning": 4377,
      "motionärerna": 4378,
      ".”": 4379,
      "därtill": 4380,
      "##bo": 4381,
      "59": 4382,
      "186": 4383,
      "##öf": 4384,
      "tillämpning": 4385,
      "KD": 4386,
      "##ystemet": 4387,
      "##rastruktur": 4388,
      "##brott": 4389,
      "satsa": 4390,
      "Eriksson": 4391,
      "hända": 4392,
      "##egi": 4393,
      "nödvändiga": 4394,
      "exper": 4395,
      "folkpartiet": 4396,
      "emellan": 4397,
      "Hed": 4398,
      "##derna": 4399,
      "juli": 4400,
      "##sförb": 4401,
      "##ure": 4402,
      "##skra": 4403,
      "förklarades": 4404,
      "Or": 4405,
      "hälften": 4406,
      "tycks": 4407,
      "socialdemokrater": 4408,
      "försvaret": 4409,
      "allmänheten": 4410,
      "förvå": 4411,
      ").": 4412,
      "timmar": 4413,
      "##finans": 4414,
      "##uss": 4415,
      "##ikapp": 4416,
      "##AT": 4417,
      "tillgodo": 4418,
      "Väster": 4419,
      "##ebolag": 4420,
      "supple": 4421,
      "##döm": 4422,
      "beteck": 4423,
      "utrym": 4424,
      "dylik": 4425,
      "utländska": 4426,
      "görs": 4427,
      "underlag": 4428,
      "upphör": 4429,
      "63": 4430,
      "arren": 4431,
      "sjelf": 4432,
      "valet": 4433,
      "disp": 4434,
      "papp": 4435,
      "relativt": 4436,
      "opin": 4437,
      "Sten": 4438,
      "##hända": 4439,
      "1984": 4440,
      "hälso": 4441,
      "erkänna": 4442,
      "##olagen": 4443,
      "utrednings": 4444,
      "speciellt": 4445,
      "såg": 4446,
      "bestämt": 4447,
      "##onop": 4448,
      "människorna": 4449,
      "konstitutionsutskottet": 4450,
      "åsigt": 4451,
      "##köping": 4452,
      "konjunktur": 4453,
      "Anmäldes": 4454,
      "gjordes": 4455,
      "uppmärksam": 4456,
      "norr": 4457,
      "förmögen": 4458,
      "##juda": 4459,
      "sitter": 4460,
      "bifaller": 4461,
      "förhand": 4462,
      "##RIK": 4463,
      "##yss": 4464,
      "brotts": 4465,
      "##andat": 4466,
      "upprep": 4467,
      "##skole": 4468,
      "Kam": 4469,
      "##rida": 4470,
      "läkare": 4471,
      "##onde": 4472,
      "förfogande": 4473,
      "teknik": 4474,
      "avgivna": 4475,
      "otill": 4476,
      "medverka": 4477,
      "ränt": 4478,
      "polisen": 4479,
      "åtn": 4480,
      "protokollet": 4481,
      "säll": 4482,
      "##off": 4483,
      "visade": 4484,
      "##enta": 4485,
      "öfrigt": 4486,
      "##ösa": 4487,
      "##lex": 4488,
      "afgif": 4489,
      "cir": 4490,
      "##rika": 4491,
      "styck": 4492,
      "##pan": 4493,
      "uttalade": 4494,
      "företrädare": 4495,
      "framhöll": 4496,
      "bostäder": 4497,
      "nar": 4498,
      "statlig": 4499,
      "##änkningar": 4500,
      "Anders": 4501,
      "1981": 4502,
      "förbättring": 4503,
      "##sarbet": 4504,
      "Eric": 4505,
      "fullkomligt": 4506,
      "framhållit": 4507,
      "frukt": 4508,
      "##irekt": 4509,
      "##rimin": 4510,
      "##ahl": 4511,
      "1983": 4512,
      "aktuella": 4513,
      "Först": 4514,
      "##peri": 4515,
      "##änkande": 4516,
      "parlamentar": 4517,
      "slutet": 4518,
      "##marknaden": 4519,
      "ent": 4520,
      "MAR": 4521,
      "##OT": 4522,
      "glöm": 4523,
      "##örjning": 4524,
      "##rala": 4525,
      "1988": 4526,
      "afs": 4527,
      "församling": 4528,
      "stund": 4529,
      "enskilde": 4530,
      "derföre": 4531,
      "1970": 4532,
      "resonemang": 4533,
      "voteringsproposition": 4534,
      "##läggas": 4535,
      "##sättningar": 4536,
      "dylikt": 4537,
      "likalydande": 4538,
      "EG": 4539,
      "skriver": 4540,
      "##mynd": 4541,
      "behandla": 4542,
      "kvalitet": 4543,
      "socialdemokrati": 4544,
      "tur": 4545,
      "utomordentligt": 4546,
      "ben": 4547,
      "##beroende": 4548,
      "utarbet": 4549,
      "##värde": 4550,
      "vanliga": 4551,
      "försv": 4552,
      "tidpunkt": 4553,
      "##IK": 4554,
      "bifalla": 4555,
      "##ora": 4556,
      "utöver": 4557,
      "förutsätter": 4558,
      "aflö": 4559,
      "67": 4560,
      "##ium": 4561,
      "##set": 4562,
      "målet": 4563,
      "offentlig": 4564,
      "##utbildningen": 4565,
      "samling": 4566,
      "arti": 4567,
      "##göring": 4568,
      "bifallit": 4569,
      "##skin": 4570,
      "svag": 4571,
      "##aktär": 4572,
      "kontakt": 4573,
      "försökt": 4574,
      "##fors": 4575,
      "##nämnd": 4576,
      "##arat": 4577,
      "Vär": 4578,
      "relig": 4579,
      "statsmakterna": 4580,
      "fattade": 4581,
      "insats": 4582,
      "Sch": 4583,
      "##orda": 4584,
      "räcker": 4585,
      "låt": 4586,
      "söker": 4587,
      "##sprogram": 4588,
      "framställa": 4589,
      "##nats": 4590,
      "rigt": 4591,
      "##gning": 4592,
      "gamm": 4593,
      "majoriteten": 4594,
      "61": 4595,
      "gett": 4596,
      "##röken": 4597,
      "pati": 4598,
      "nationella": 4599,
      "godt": 4600,
      "nödvändig": 4601,
      "##alk": 4602,
      "annor": 4603,
      "instämde": 4604,
      "behålla": 4605,
      "skärp": 4606,
      "##ivel": 4607,
      "##eka": 4608,
      "tvingas": 4609,
      "##ställningen": 4610,
      "##elt": 4611,
      "Danmark": 4612,
      "##industri": 4613,
      "värder": 4614,
      "kungl": 4615,
      "SV": 4616,
      "Br": 4617,
      "skrift": 4618,
      "tjänstemän": 4619,
      "at": 4620,
      "drift": 4621,
      "via": 4622,
      "uppt": 4623,
      "##ologiska": 4624,
      "62": 4625,
      "ambition": 4626,
      "förmåga": 4627,
      "ensam": 4628,
      "välfärd": 4629,
      "moment": 4630,
      "Ek": 4631,
      "bibehåll": 4632,
      "tanken": 4633,
      "yrkandet": 4634,
      "mandat": 4635,
      "lärar": 4636,
      "anhåller": 4637,
      "möta": 4638,
      "grann": 4639,
      "##skland": 4640,
      "tydlig": 4641,
      "föreslagits": 4642,
      "##hög": 4643,
      "Eftersom": 4644,
      "befri": 4645,
      "##NG": 4646,
      "##ei": 4647,
      "motiveringen": 4648,
      "hit": 4649,
      "##jä": 4650,
      "##troller": 4651,
      "##lit": 4652,
      "statistik": 4653,
      "##speri": 4654,
      "fara": 4655,
      "yrkanden": 4656,
      "##oppet": 4657,
      "hänvisades": 4658,
      "anpass": 4659,
      "allians": 4660,
      "snarare": 4661,
      "dröj": 4662,
      "härvid": 4663,
      "Lin": 4664,
      "Slut": 4665,
      "##rupp": 4666,
      "1977": 4667,
      "ss": 4668,
      "##skad": 4669,
      "Göran": 4670,
      "handels": 4671,
      "diskuterar": 4672,
      "läggas": 4673,
      "förr": 4674,
      "påmin": 4675,
      "brister": 4676,
      "##gifts": 4677,
      "vidtaga": 4678,
      "konkreta": 4679,
      "obet": 4680,
      "Justerades": 4681,
      "##almar": 4682,
      "vem": 4683,
      "##ED": 4684,
      "intag": 4685,
      "beskattning": 4686,
      "##brik": 4687,
      "medgif": 4688,
      "sant": 4689,
      "##fvande": 4690,
      "##ograf": 4691,
      "Gun": 4692,
      "##ssons": 4693,
      "fortsatta": 4694,
      "varav": 4695,
      "fogade": 4696,
      "respekt": 4697,
      "##onopol": 4698,
      "##po": 4699,
      "##itutet": 4700,
      "hitta": 4701,
      "lyckats": 4702,
      "##ansen": 4703,
      "trodde": 4704,
      "etabl": 4705,
      "onöd": 4706,
      "positiva": 4707,
      "LAR": 4708,
      "siste": 4709,
      "sägas": 4710,
      "väljer": 4711,
      "kalla": 4712,
      "##skan": 4713,
      "sjelfva": 4714,
      "titta": 4715,
      "nordiska": 4716,
      "ro": 4717,
      "sägs": 4718,
      "##stäl": 4719,
      "##si": 4720,
      "special": 4721,
      "saknar": 4722,
      "förekomma": 4723,
      "kap": 4724,
      "##förvalt": 4725,
      "handikapp": 4726,
      "språk": 4727,
      "Meddel": 4728,
      "drabbas": 4729,
      "asy": 4730,
      "fil": 4731,
      "ställde": 4732,
      "händelse": 4733,
      "##bergs": 4734,
      "##delsen": 4735,
      "bliva": 4736,
      "sö": 4737,
      "överläm": 4738,
      "jämförelse": 4739,
      "beskaffenhet": 4740,
      "bestämda": 4741,
      "tra": 4742,
      "##aktiga": 4743,
      "fog": 4744,
      "sedermera": 4745,
      "forsknings": 4746,
      "mass": 4747,
      "började": 4748,
      "medelst": 4749,
      "##sproblem": 4750,
      "ramen": 4751,
      "bidra": 4752,
      "rättvis": 4753,
      "##teras": 4754,
      "##förmed": 4755,
      "bru": 4756,
      "rekommen": 4757,
      "##staten": 4758,
      "art": 4759,
      "andre": 4760,
      "##sätter": 4761,
      "kostnads": 4762,
      "##ssyn": 4763,
      "##yra": 4764,
      "ingår": 4765,
      "##tivt": 4766,
      "hen": 4767,
      "direktiv": 4768,
      "omedelbart": 4769,
      "pensions": 4770,
      "avva": 4771,
      "##slån": 4772,
      "Centerpartiet": 4773,
      "service": 4774,
      "sätter": 4775,
      "ting": 4776,
      "utsläpp": 4777,
      "##eringar": 4778,
      "##ödra": 4779,
      "arbetsl": 4780,
      "härom": 4781,
      "teck": 4782,
      "landt": 4783,
      "USA": 4784,
      "##nt": 4785,
      "##värda": 4786,
      "##gos": 4787,
      "annars": 4788,
      "##sbeslut": 4789,
      "##sbidrag": 4790,
      "##intress": 4791,
      "tve": 4792,
      "tillägga": 4793,
      "1989": 4794,
      "fjärde": 4795,
      "lagar": 4796,
      "##skoll": 4797,
      "68": 4798,
      "utvecklas": 4799,
      "liber": 4800,
      "##herre": 4801,
      "trä": 4802,
      "departementschefen": 4803,
      "fattat": 4804,
      "ov": 4805,
      "##byggande": 4806,
      "bransch": 4807,
      "##ARL": 4808,
      "##skontoret": 4809,
      "##bro": 4810,
      "##sattes": 4811,
      "bereda": 4812,
      "ständigt": 4813,
      "fabrik": 4814,
      "##skyd": 4815,
      "illa": 4816,
      "asyl": 4817,
      "mill": 4818,
      "verkliga": 4819,
      "##orgen": 4820,
      "Folkpartiet": 4821,
      "infrastruktur": 4822,
      "400": 4823,
      "64": 4824,
      "väsentliga": 4825,
      "##nderna": 4826,
      "yttrat": 4827,
      "förstärk": 4828,
      "##gasatt": 4829,
      "konsument": 4830,
      "##ärenden": 4831,
      "befolkningen": 4832,
      "räknar": 4833,
      "##enten": 4834,
      "justitieministern": 4835,
      "rational": 4836,
      "##föras": 4837,
      "stabil": 4838,
      "66": 4839,
      "löntag": 4840,
      "##stjän": 4841,
      "sommar": 4842,
      "et": 4843,
      "##udet": 4844,
      "fäng": 4845,
      "77": 4846,
      "##edes": 4847,
      "förrän": 4848,
      "eventuellt": 4849,
      "unders": 4850,
      "##ensen": 4851,
      "använ": 4852,
      "uppträ": 4853,
      "förhindra": 4854,
      "förmen": 4855,
      "karaktär": 4856,
      "lif": 4857,
      "förvänt": 4858,
      "##säg": 4859,
      "##gård": 4860,
      "Ham": 4861,
      "pröva": 4862,
      "##ptem": 4863,
      "##...": 4864,
      "produc": 4865,
      "##manna": 4866,
      "ledning": 4867,
      "hvarför": 4868,
      "##kort": 4869,
      "##ptember": 4870,
      "##stedt": 4871,
      "##ektiva": 4872,
      "utbyggnad": 4873,
      "stig": 4874,
      "##hn": 4875,
      "##bolag": 4876,
      "##ställer": 4877,
      "kompens": 4878,
      "Land": 4879,
      "##buds": 4880,
      "##räde": 4881,
      "lilla": 4882,
      "utrikesministern": 4883,
      "jordbrukets": 4884,
      "##bestämm": 4885,
      "valut": 4886,
      "politiskt": 4887,
      "uppenbarligen": 4888,
      "budgeten": 4889,
      "lättare": 4890,
      "##sala": 4891,
      "bekymmer": 4892,
      "Själ": 4893,
      "politiker": 4894,
      "Hall": 4895,
      "##förbund": 4896,
      "betänkanden": 4897,
      "anförts": 4898,
      "Sy": 4899,
      "hörde": 4900,
      "##AND": 4901,
      "investering": 4902,
      "beslutat": 4903,
      "##reger": 4904,
      "utreda": 4905,
      "##beskatt": 4906,
      "##kan": 4907,
      "##onala": 4908,
      "anmärkning": 4909,
      "kännedom": 4910,
      "##inna": 4911,
      "användning": 4912,
      "främmande": 4913,
      "##----": 4914,
      "fond": 4915,
      "##dets": 4916,
      "stri": 4917,
      "återr": 4918,
      "##ares": 4919,
      "terr": 4920,
      "##blio": 4921,
      "principer": 4922,
      "gra": 4923,
      "##förm": 4924,
      "utskottsmajoriteten": 4925,
      "sjöfar": 4926,
      "##kr": 4927,
      "sa": 4928,
      "titt": 4929,
      "syftar": 4930,
      "äger": 4931,
      "antingen": 4932,
      "mor": 4933,
      "tom": 4934,
      "##tim": 4935,
      "kil": 4936,
      "fann": 4937,
      "miljon": 4938,
      "anhåll": 4939,
      "##gade": 4940,
      "kallade": 4941,
      "motsvar": 4942,
      "orter": 4943,
      "röstat": 4944,
      "##blad": 4945,
      "rösterna": 4946,
      "Sjö": 4947,
      "konstaterar": 4948,
      "##miljö": 4949,
      "kopp": 4950,
      "avgivit": 4951,
      "speciella": 4952,
      "bely": 4953,
      "reglerna": 4954,
      "sysselsättningen": 4955,
      "överläggningen": 4956,
      "gifva": 4957,
      "##nare": 4958,
      "väsentlig": 4959,
      "förklara": 4960,
      "deremot": 4961,
      "hänt": 4962,
      "styrelse": 4963,
      "studie": 4964,
      "utbildningen": 4965,
      "##delar": 4966,
      "##ansvar": 4967,
      "hind": 4968,
      "förhåller": 4969,
      "företaget": 4970,
      "försikt": 4971,
      "sänka": 4972,
      "##ius": 4973,
      "derigenom": 4974,
      "personliga": 4975,
      "strate": 4976,
      "##proposition": 4977,
      "72": 4978,
      "iak": 4979,
      "##skar": 4980,
      "##andard": 4981,
      "sökt": 4982,
      "föreligga": 4983,
      "hemställts": 4984,
      "upplästes": 4985,
      "beredda": 4986,
      "##pröv": 4987,
      "##sst": 4988,
      "Kommun": 4989,
      "##koti": 4990,
      "yttr": 4991,
      "##fallit": 4992,
      "satsningar": 4993,
      "##görelse": 4994,
      "##röj": 4995,
      "lov": 4996,
      "nykter": 4997,
      "Bir": 4998,
      "utfärd": 4999,
      "lära": 5000,
      "mott": 5001,
      "##problem": 5002,
      "1973": 5003,
      "69": 5004,
      "##egor": 5005,
      "##NE": 5006,
      "Östers": 5007,
      "sent": 5008,
      "inter": 5009,
      "stod": 5010,
      "stift": 5011,
      "##änken": 5012,
      "##ningom": 5013,
      "avstå": 5014,
      "typen": 5015,
      "socialt": 5016,
      "september": 5017,
      "##flytt": 5018,
      "Jon": 5019,
      "försöks": 5020,
      "neut": 5021,
      "förutsättningarna": 5022,
      "småningom": 5023,
      "skull": 5024,
      "##bin": 5025,
      "kv": 5026,
      "##ädes": 5027,
      "##männen": 5028,
      "rättvisa": 5029,
      "livet": 5030,
      "ämne": 5031,
      "Justiti": 5032,
      "arbeten": 5033,
      "skydda": 5034,
      "Mag": 5035,
      "##skolorna": 5036,
      "idé": 5037,
      "##fatta": 5038,
      "skedde": 5039,
      "praktiken": 5040,
      "ställningstagande": 5041,
      "krist": 5042,
      "regionala": 5043,
      "Emellertid": 5044,
      "ämbets": 5045,
      "##utredningen": 5046,
      "sträck": 5047,
      "allvarliga": 5048,
      "ses": 5049,
      "erfarenheter": 5050,
      "##eta": 5051,
      "##familj": 5052,
      "vakt": 5053,
      "##makt": 5054,
      "##stiftningen": 5055,
      "klo": 5056,
      "##ton": 5057,
      "lämnat": 5058,
      "##ild": 5059,
      "ämnen": 5060,
      "lev": 5061,
      "human": 5062,
      "herrarna": 5063,
      "avstyr": 5064,
      "##förhållanden": 5065,
      "förslagen": 5066,
      "storlek": 5067,
      "dertill": 5068,
      "##häl": 5069,
      "##ringa": 5070,
      "vart": 5071,
      "##mäst": 5072,
      "##stillägg": 5073,
      "vården": 5074,
      "for": 5075,
      "anföra": 5076,
      "perspektiv": 5077,
      "##ivån": 5078,
      "1972": 5079,
      "bevillningsutskottets": 5080,
      "riktiga": 5081,
      "centrala": 5082,
      "##sfall": 5083,
      "##vas": 5084,
      "##sto": 5085,
      "enighet": 5086,
      "ter": 5087,
      "rösträtt": 5088,
      "##edag": 5089,
      "kostar": 5090,
      "##ökning": 5091,
      "Fl": 5092,
      "##sera": 5093,
      "positiv": 5094,
      "Fr": 5095,
      "dåligt": 5096,
      "utnyttja": 5097,
      "städerna": 5098,
      "##hov": 5099,
      "Talmannen": 5100,
      "150": 5101,
      "##jest": 5102,
      "tillräcklig": 5103,
      "##lid": 5104,
      "godkännande": 5105,
      "ort": 5106,
      "71": 5107,
      "avsåg": 5108,
      "sjukvården": 5109,
      "intagit": 5110,
      "1976": 5111,
      "##ikter": 5112,
      "motiv": 5113,
      "förbin": 5114,
      "beslutade": 5115,
      "##unskap": 5116,
      "##ankens": 5117,
      "kravet": 5118,
      "härefter": 5119,
      "tillgodos": 5120,
      "noga": 5121,
      "struktur": 5122,
      "anskaff": 5123,
      "mjöl": 5124,
      "medveten": 5125,
      "95": 5126,
      "vars": 5127,
      "Slutligen": 5128,
      "##ställningar": 5129,
      "fö": 5130,
      "dat": 5131,
      "##villkor": 5132,
      "##dat": 5133,
      "tyckte": 5134,
      "anslagen": 5135,
      "uppmärksamheten": 5136,
      "##iel": 5137,
      "administra": 5138,
      "lug": 5139,
      "hemställer": 5140,
      "anledningen": 5141,
      "samarbetet": 5142,
      "sannolikt": 5143,
      "narkoti": 5144,
      "GU": 5145,
      "##ligtvis": 5146,
      "autom": 5147,
      "##organisationen": 5148,
      "national": 5149,
      "hösten": 5150,
      "##skär": 5151,
      "enkla": 5152,
      "Der": 5153,
      "påkall": 5154,
      "fungera": 5155,
      "fördelar": 5156,
      "minskar": 5157,
      "oppositionen": 5158,
      "reserv": 5159,
      "gymnasie": 5160,
      "##ons": 5161,
      "krafter": 5162,
      "##öterna": 5163,
      "##omål": 5164,
      "##anta": 5165,
      "socker": 5166,
      "ten": 5167,
      "##tionerna": 5168,
      "##politisk": 5169,
      "införande": 5170,
      "begrepp": 5171,
      "##enti": 5172,
      "boende": 5173,
      "tillåt": 5174,
      "##idan": 5175,
      "senast": 5176,
      "hast": 5177,
      "emedan": 5178,
      "Trots": 5179,
      "utmär": 5180,
      "##fning": 5181,
      "Inom": 5182,
      "##radition": 5183,
      "73": 5184,
      "sälja": 5185,
      "omsorg": 5186,
      "konkurren": 5187,
      "TV": 5188,
      "kansl": 5189,
      "ega": 5190,
      "utrymme": 5191,
      "##förbundet": 5192,
      "##ivt": 5193,
      "stanna": 5194,
      "rekry": 5195,
      "synnerhet": 5196,
      "fasta": 5197,
      "inrikes": 5198,
      "effektivt": 5199,
      "övergång": 5200,
      "##idar": 5201,
      "flott": 5202,
      "Tyskland": 5203,
      "Meddelande": 5204,
      "##EC": 5205,
      "hård": 5206,
      "annorlunda": 5207,
      "Karlsson": 5208,
      "##platser": 5209,
      "fattiga": 5210,
      "avläm": 5211,
      "kris": 5212,
      "samverkan": 5213,
      "##refve": 5214,
      "JOHANSSON": 5215,
      "rättighet": 5216,
      "utvärder": 5217,
      "##xis": 5218,
      "##jet": 5219,
      "Därmed": 5220,
      "##sområden": 5221,
      "tillm": 5222,
      "1974": 5223,
      "Hansson": 5224,
      "gi": 5225,
      "##VI": 5226,
      "##entera": 5227,
      "##ändring": 5228,
      "##OM": 5229,
      "lämpliga": 5230,
      "avslå": 5231,
      "missbruk": 5232,
      "##rest": 5233,
      "ändrade": 5234,
      "riktig": 5235,
      "papper": 5236,
      "utlandet": 5237,
      "handlingarna": 5238,
      "Såsom": 5239,
      "##vapen": 5240,
      "##sledam": 5241,
      "fastställ": 5242,
      "veckor": 5243,
      "utman": 5244,
      "##itter": 5245,
      "stödet": 5246,
      "##organ": 5247,
      "samhälls": 5248,
      "Ingen": 5249,
      "Petter": 5250,
      "folkpension": 5251,
      "bevillningsutskottet": 5252,
      "00": 5253,
      "bestämmelse": 5254,
      "##grupper": 5255,
      "bära": 5256,
      "produkter": 5257,
      "2000": 5258,
      "sektorn": 5259,
      "ända": 5260,
      "inköp": 5261,
      "behof": 5262,
      "bolaget": 5263,
      "##ific": 5264,
      "##reglering": 5265,
      "peka": 5266,
      "lott": 5267,
      "##ören": 5268,
      "bakgrunden": 5269,
      "sjukhus": 5270,
      "inhem": 5271,
      "##spropositionen": 5272,
      "ANDERSSON": 5273,
      "##sområdet": 5274,
      "##sra": 5275,
      "##terat": 5276,
      "handla": 5277,
      "74": 5278,
      "##handa": 5279,
      "klag": 5280,
      "förbund": 5281,
      "Skall": 5282,
      "ordna": 5283,
      "utgifterna": 5284,
      "##försäkringen": 5285,
      "fattas": 5286,
      "##bildning": 5287,
      "##sprotokoll": 5288,
      "kontroller": 5289,
      "obetyd": 5290,
      "skilda": 5291,
      "bud": 5292,
      "riktlinjer": 5293,
      "familje": 5294,
      "##mäss": 5295,
      "##ivande": 5296,
      "godkänna": 5297,
      "tand": 5298,
      "inskrän": 5299,
      "ANN": 5300,
      "##klass": 5301,
      ">»": 5302,
      "##icer": 5303,
      "tillfället": 5304,
      "##budget": 5305,
      "fritt": 5306,
      "92": 5307,
      "lokalisering": 5308,
      "tillfredsställelse": 5309,
      "##agt": 5310,
      "statligt": 5311,
      "##stiftning": 5312,
      "huvudtiteln": 5313,
      "överg": 5314,
      "reservationerna": 5315,
      "##stolen": 5316,
      "därest": 5317,
      "genomföras": 5318,
      "framlägga": 5319,
      "verkligt": 5320,
      "inb": 5321,
      "hantera": 5322,
      "skälet": 5323,
      "åtta": 5324,
      "företagare": 5325,
      "Wall": 5326,
      "skade": 5327,
      "förvaltning": 5328,
      "Sverigedemokraterna": 5329,
      "reserver": 5330,
      "Själv": 5331,
      "underlätta": 5332,
      "arbetsgivare": 5333,
      "minskning": 5334,
      "tåg": 5335,
      "befattningsha": 5336,
      "##hav": 5337,
      "enhäll": 5338,
      "sprit": 5339,
      "eljest": 5340,
      "##iast": 5341,
      "städer": 5342,
      "förhöj": 5343,
      "##jus": 5344,
      "gles": 5345,
      "Skån": 5346,
      "kyr": 5347,
      "Arbet": 5348,
      "erford": 5349,
      "##nam": 5350,
      "##redningen": 5351,
      "bordlagda": 5352,
      "##les": 5353,
      "ihåg": 5354,
      "##änga": 5355,
      "##gjort": 5356,
      "##jo": 5357,
      "lämnar": 5358,
      "Redan": 5359,
      "öppen": 5360,
      "beräknas": 5361,
      "oberoende": 5362,
      "rörelse": 5363,
      "lantbruks": 5364,
      "kriminal": 5365,
      "Ind": 5366,
      "kollektiv": 5367,
      "##yl": 5368,
      "ögonblick": 5369,
      "##vall": 5370,
      "##öjligheter": 5371,
      "angår": 5372,
      "##öst": 5373,
      "tjänste": 5374,
      "##arbetare": 5375,
      "enhet": 5376,
      "##enast": 5377,
      "befog": 5378,
      "##syft": 5379,
      "##let": 5380,
      "hä": 5381,
      "rädd": 5382,
      "##huvud": 5383,
      "ekonomin": 5384,
      "försvin": 5385,
      "##SON": 5386,
      "föreskrifter": 5387,
      "summa": 5388,
      "Natur": 5389,
      "##AM": 5390,
      "arbetstid": 5391,
      "gro": 5392,
      "acceptera": 5393,
      "##orgon": 5394,
      "luft": 5395,
      "tydliga": 5396,
      "framlagda": 5397,
      "önskan": 5398,
      "##enheten": 5399,
      "##jerna": 5400,
      "fost": 5401,
      "##spekt": 5402,
      "uteslutande": 5403,
      "representant": 5404,
      "betyg": 5405,
      "någonsin": 5406,
      "##gress": 5407,
      "lämplig": 5408,
      "låga": 5409,
      "hävda": 5410,
      "1960": 5411,
      "slår": 5412,
      "År": 5413,
      "lämnas": 5414,
      "Dahl": 5415,
      "riket": 5416,
      "##åren": 5417,
      "återigen": 5418,
      "besök": 5419,
      "vända": 5420,
      "uppskatt": 5421,
      "framställningar": 5422,
      "förhoppning": 5423,
      "demokratiska": 5424,
      "prä": 5425,
      "##ärerna": 5426,
      "Allt": 5427,
      "##pande": 5428,
      "hänvisning": 5429,
      "##område": 5430,
      "##orden": 5431,
      "organisationen": 5432,
      "##gra": 5433,
      "bestämd": 5434,
      "beröra": 5435,
      "styrelsen": 5436,
      "600": 5437,
      "##vel": 5438,
      "imp": 5439,
      "##straff": 5440,
      "93": 5441,
      "avseenden": 5442,
      "obligator": 5443,
      "Föredrogos": 5444,
      "främja": 5445,
      "##stalter": 5446,
      "måhända": 5447,
      "undervisningen": 5448,
      "avväg": 5449,
      "avgör": 5450,
      "flykting": 5451,
      "jordbrukare": 5452,
      "##hjälp": 5453,
      "##pac": 5454,
      "effekti": 5455,
      "sym": 5456,
      "svårare": 5457,
      "##nades": 5458,
      "förlust": 5459,
      "minskat": 5460,
      "energ": 5461,
      "lösningar": 5462,
      "hänvisa": 5463,
      "revisor": 5464,
      "framöver": 5465,
      "spelar": 5466,
      "##ara": 5467,
      "vikten": 5468,
      "inriktning": 5469,
      "pågående": 5470,
      "opinion": 5471,
      "##diga": 5472,
      "##br": 5473,
      "självständ": 5474,
      "kriget": 5475,
      "last": 5476,
      "signal": 5477,
      "tagas": 5478,
      "modern": 5479,
      "ref": 5480,
      "vänster": 5481,
      "tackar": 5482,
      "döm": 5483,
      "##sområde": 5484,
      "tidigt": 5485,
      "beskattningen": 5486,
      "urspr": 5487,
      "europeiska": 5488,
      "##errätt": 5489,
      "skyldig": 5490,
      "yrkat": 5491,
      "##lande": 5492,
      "ställas": 5493,
      "hänvisar": 5494,
      "##stillfäll": 5495,
      "total": 5496,
      "erhöll": 5497,
      "mått": 5498,
      "##änker": 5499,
      "snarast": 5500,
      "Vis": 5501,
      "riskerar": 5502,
      "##sstyrelsen": 5503,
      "##rång": 5504,
      "Skatt": 5505,
      "##HL": 5506,
      "##ningss": 5507,
      "valt": 5508,
      "##ärare": 5509,
      "omför": 5510,
      "##rare": 5511,
      "socialministern": 5512,
      "##IND": 5513,
      "reformer": 5514,
      "dig": 5515,
      "##central": 5516,
      "##giva": 5517,
      "armé": 5518,
      "ränte": 5519,
      "åtnjut": 5520,
      "98": 5521,
      "flytta": 5522,
      "fidem": 5523,
      "angivna": 5524,
      "1990": 5525,
      "betraktas": 5526,
      "läst": 5527,
      "Anmälan": 5528,
      "##former": 5529,
      "##spension": 5530,
      "internationell": 5531,
      "industrin": 5532,
      "##isera": 5533,
      "##dryck": 5534,
      "förhandlingarna": 5535,
      "överenskommelse": 5536,
      "länsstyr": 5537,
      "öfriga": 5538,
      "meningar": 5539,
      "skogsb": 5540,
      "stam": 5541,
      "omdöm": 5542,
      "jobba": 5543,
      "91": 5544,
      "trafiken": 5545,
      "gr": 5546,
      "läser": 5547,
      "##vand": 5548,
      "menings": 5549,
      "tradition": 5550,
      "lett": 5551,
      "sitta": 5552,
      "människors": 5553,
      "uppstår": 5554,
      "solidar": 5555,
      "konstitutionsutskottets": 5556,
      "tillgodose": 5557,
      "motor": 5558,
      "kostnaden": 5559,
      "upptaga": 5560,
      "denne": 5561,
      "##TA": 5562,
      "##ationerna": 5563,
      "AB": 5564,
      "ense": 5565,
      "släpp": 5566,
      "krigs": 5567,
      "internationellt": 5568,
      "riksbanken": 5569,
      "öm": 5570,
      "kompl": 5571,
      "Änd": 5572,
      "beslöt": 5573,
      "bränsl": 5574,
      "talas": 5575,
      "vidt": 5576,
      "##olf": 5577,
      "principen": 5578,
      "avvis": 5579,
      "höll": 5580,
      "##istr": 5581,
      "Engl": 5582,
      "elekt": 5583,
      "rätte": 5584,
      "##fvet": 5585,
      "##ING": 5586,
      "##ransp": 5587,
      "fröken": 5588,
      "##strafik": 5589,
      "Lindh": 5590,
      "propor": 5591,
      "##mor": 5592,
      "undersökningar": 5593,
      "tvivel": 5594,
      "priset": 5595,
      "olämp": 5596,
      "kontra": 5597,
      "beskriv": 5598,
      "##stitu": 5599,
      "meddela": 5600,
      "föredragna": 5601,
      "halv": 5602,
      "Vissa": 5603,
      "träd": 5604,
      "studer": 5605,
      "befolkning": 5606,
      "fäst": 5607,
      "fok": 5608,
      "##lander": 5609,
      "##jan": 5610,
      "##sutdrag": 5611,
      "hufvudsak": 5612,
      "Finland": 5613,
      "besparingar": 5614,
      "produktionen": 5615,
      "trakt": 5616,
      "chef": 5617,
      "##skatte": 5618,
      "##dande": 5619,
      "sluta": 5620,
      "bevilja": 5621,
      "##ckles": 5622,
      "##varor": 5623,
      "fritid": 5624,
      "94": 5625,
      "uppres": 5626,
      "totala": 5627,
      "partiet": 5628,
      "inneha": 5629,
      "läkemedel": 5630,
      "##utin": 5631,
      "##istisk": 5632,
      "lönsam": 5633,
      "undvika": 5634,
      "##skäl": 5635,
      "margin": 5636,
      "##områden": 5637,
      "##kande": 5638,
      "##apparat": 5639,
      "betalar": 5640,
      "Tack": 5641,
      "##ventionen": 5642,
      "beho": 5643,
      "##adem": 5644,
      "orimligt": 5645,
      "##cklesiast": 5646,
      "leg": 5647,
      "morgon": 5648,
      "##utit": 5649,
      "glädjande": 5650,
      "neutral": 5651,
      "Konung": 5652,
      "Utrikes": 5653,
      "interpellationer": 5654,
      "##tive": 5655,
      "välfär": 5656,
      "RR": 5657,
      "os": 5658,
      "Palm": 5659,
      "resa": 5660,
      "färdig": 5661,
      "starkare": 5662,
      "anmärkningar": 5663,
      "förefin": 5664,
      "Her": 5665,
      "ill": 5666,
      "förbered": 5667,
      "föredro": 5668,
      "##astro": 5669,
      "vack": 5670,
      "##finansi": 5671,
      "##varen": 5672,
      "oförändra": 5673,
      "protokollsutdrag": 5674,
      "sättas": 5675,
      "barnoms": 5676,
      "begrän": 5677,
      "råda": 5678,
      "##vägar": 5679,
      "##ista": 5680,
      "kunskaper": 5681,
      "##rygg": 5682,
      "##lyft": 5683,
      "##ian": 5684,
      "##komst": 5685,
      "praxis": 5686,
      "##arbets": 5687,
      "vilkor": 5688,
      "osv": 5689,
      "Reservation": 5690,
      "koncent": 5691,
      "##edd": 5692,
      "##stans": 5693,
      "fång": 5694,
      "utsatta": 5695,
      "Allmän": 5696,
      "skynd": 5697,
      "antagande": 5698,
      "effekter": 5699,
      "kommittén": 5700,
      "förfar": 5701,
      "##LA": 5702,
      "##draget": 5703,
      "jobbar": 5704,
      "kommunernas": 5705,
      "iakttag": 5706,
      "orden": 5707,
      "##age": 5708,
      "ursprung": 5709,
      "Vilka": 5710,
      "civila": 5711,
      "##uella": 5712,
      "öfverens": 5713,
      "”.": 5714,
      "Mari": 5715,
      "åtskil": 5716,
      "##städes": 5717,
      "engagemang": 5718,
      "99": 5719,
      "##stillstånd": 5720,
      "kommissionen": 5721,
      "moderata": 5722,
      "hamnar": 5723,
      "samhällsekonom": 5724,
      "Hon": 5725,
      "Gunnar": 5726,
      "##jön": 5727,
      "##uppgifter": 5728,
      "##mas": 5729,
      "##skassan": 5730,
      "sänkning": 5731,
      "1971": 5732,
      "stater": 5733,
      "Pettersson": 5734,
      "Dag": 5735,
      "kräva": 5736,
      "##merik": 5737,
      "interpellationen": 5738,
      "järnvägar": 5739,
      "sköta": 5740,
      "##enn": 5741,
      "Got": 5742,
      "##ssäker": 5743,
      "##tning": 5744,
      "behandlar": 5745,
      "##änkandet": 5746,
      "beloppet": 5747,
      "konsekvenserna": 5748,
      "befar": 5749,
      "##sförsäkring": 5750,
      "##isterna": 5751,
      "åsyft": 5752,
      "Ohlin": 5753,
      "so": 5754,
      "befunn": 5755,
      "aktivt": 5756,
      "##cell": 5757,
      "säkra": 5758,
      "pu": 5759,
      "hindra": 5760,
      "##use": 5761,
      "förekom": 5762,
      "##sutlåt": 5763,
      "##ygga": 5764,
      "konflik": 5765,
      "moderaterna": 5766,
      "billigare": 5767,
      "häst": 5768,
      "ra": 5769,
      "giva": 5770,
      "kär": 5771,
      "cp": 5772,
      "minister": 5773,
      "##pet": 5774,
      "##iken": 5775,
      "tillsatt": 5776,
      "lyckas": 5777,
      "##skog": 5778,
      "åsikt": 5779,
      "skuld": 5780,
      "integr": 5781,
      "##nens": 5782,
      "fyll": 5783,
      "og": 5784,
      "avstånd": 5785,
      "planering": 5786,
      "Jön": 5787,
      "verklig": 5788,
      "studen": 5789,
      "##skommittén": 5790,
      "respektive": 5791,
      "##skostnaderna": 5792,
      "ränta": 5793,
      "södra": 5794,
      "##he": 5795,
      "avtalet": 5796,
      "inse": 5797,
      "jurid": 5798,
      "bö": 5799,
      "##aket": 5800,
      "##säkerhet": 5801,
      "Kl": 5802,
      "glesbyg": 5803,
      "familjer": 5804,
      "uttrycka": 5805,
      "##häng": 5806,
      "Bl": 5807,
      "##fi": 5808,
      "##rona": 5809,
      "dryg": 5810,
      "##lös": 5811,
      "Chefen": 5812,
      "satsning": 5813,
      "##öld": 5814,
      "ansträng": 5815,
      "Uppsala": 5816,
      "skillnaden": 5817,
      "underlåta": 5818,
      "bott": 5819,
      "ifrågasatt": 5820,
      "delta": 5821,
      "England": 5822,
      "##skansl": 5823,
      "pol": 5824,
      "##givande": 5825,
      "skä": 5826,
      "Beslut": 5827,
      "ingående": 5828,
      "väga": 5829,
      "norra": 5830,
      "800": 5831,
      "varken": 5832,
      "avgifter": 5833,
      "utfallit": 5834,
      "##lyck": 5835,
      "histor": 5836,
      "samtal": 5837,
      "inrättande": 5838,
      "önskvärt": 5839,
      "Sål": 5840,
      "##sper": 5841,
      "rr": 5842,
      "uppm": 5843,
      "saknas": 5844,
      "Kristdemokraterna": 5845,
      "glob": 5846,
      "Ex": 5847,
      "skattef": 5848,
      "skrivit": 5849,
      "fordon": 5850,
      "befint": 5851,
      "mö": 5852,
      "draga": 5853,
      "artikel": 5854,
      "##skift": 5855,
      "jämställdhet": 5856,
      "rationalisering": 5857,
      "drar": 5858,
      "##anda": 5859,
      "föräldra": 5860,
      "2020": 5861,
      "##efon": 5862,
      "bro": 5863,
      "Vill": 5864,
      "reservanternas": 5865,
      "begränsa": 5866,
      "Skol": 5867,
      "##tat": 5868,
      "svarar": 5869,
      "kallas": 5870,
      "Tid": 5871,
      "##jämte": 5872,
      "##industrin": 5873,
      "beklagar": 5874,
      "##amen": 5875,
      "äv": 5876,
      "tor": 5877,
      "##dahl": 5878,
      "principiella": 5879,
      "##hållning": 5880,
      "reservanter": 5881,
      "överensstämmelse": 5882,
      "intens": 5883,
      "lösas": 5884,
      "förne": 5885,
      "##debatten": 5886,
      "exakt": 5887,
      "##cc": 5888,
      "##shus": 5889,
      "##jämt": 5890,
      "ti": 5891,
      "statsrådsprotokoll": 5892,
      "lägenheter": 5893,
      "motsatt": 5894,
      "förbättringar": 5895,
      "lämnade": 5896,
      "bedriva": 5897,
      "##bär": 5898,
      "allenast": 5899,
      "underrätt": 5900,
      "##ssynpunkt": 5901,
      "definiti": 5902,
      "tillåta": 5903,
      "##regler": 5904,
      "handlingar": 5905,
      "varsel": 5906,
      "##sked": 5907,
      "##snitt": 5908,
      "uppman": 5909,
      "studier": 5910,
      "sagdt": 5911,
      "analy": 5912,
      "cirka": 5913,
      "kontor": 5914,
      "tjenst": 5915,
      "lo": 5916,
      "ungdoms": 5917,
      "åtskildes": 5918,
      "gränsen": 5919,
      "tillvar": 5920,
      "Ryss": 5921,
      "##etagen": 5922,
      "##rätts": 5923,
      "##ktligen": 5924,
      "antyd": 5925,
      "dermed": 5926,
      "##usent": 5927,
      "##yng": 5928,
      "deri": 5929,
      "##jung": 5930,
      "tager": 5931,
      "region": 5932,
      "Februari": 5933,
      "behöfver": 5934,
      "Li": 5935,
      "ci": 5936,
      "ins": 5937,
      "##bry": 5938,
      "##omma": 5939,
      "klarar": 5940,
      "maskin": 5941,
      "påbör": 5942,
      "upplåt": 5943,
      "##ningsför": 5944,
      "##ingo": 5945,
      "utf": 5946,
      "stämp": 5947,
      "gammal": 5948,
      "revision": 5949,
      "##tax": 5950,
      "minim": 5951,
      "jakt": 5952,
      "utbygg": 5953,
      "behöf": 5954,
      "rimlig": 5955,
      "försvara": 5956,
      "rådande": 5957,
      "##stalt": 5958,
      "årligen": 5959,
      "risken": 5960,
      "97": 5961,
      "rem": 5962,
      "##cker": 5963,
      "anteck": 5964,
      "slipp": 5965,
      "##dator": 5966,
      "Norrbotten": 5967,
      "mångf": 5968,
      "härtill": 5969,
      "##cklesiastik": 5970,
      "##läk": 5971,
      "misstag": 5972,
      "vanligt": 5973,
      "##alog": 5974,
      "korta": 5975,
      "Lö": 5976,
      "##stjänst": 5977,
      "våren": 5978,
      "utskottsutlåt": 5979,
      "sakkunniga": 5980,
      "##jar": 5981,
      "jätt": 5982,
      "Sådan": 5983,
      "fylla": 5984,
      "Riksb": 5985,
      "##bes": 5986,
      "##atiskt": 5987,
      "##värdet": 5988,
      "moderater": 5989,
      "gilt": 5990,
      "säkerhets": 5991,
      "begränsning": 5992,
      "##inär": 5993,
      "dålig": 5994,
      "ställen": 5995,
      "##grund": 5996,
      "alltjämt": 5997,
      "misslyck": 5998,
      "##tionella": 5999,
      "instämmer": 6000,
      "##öden": 6001,
      "direkta": 6002,
      "Någon": 6003,
      "erfordras": 6004,
      "skar": 6005,
      "ordningen": 6006,
      "##gn": 6007,
      "Tyvärr": 6008,
      "Sär": 6009,
      "##IA": 6010,
      "Le": 6011,
      "personalen": 6012,
      "totalt": 6013,
      "##gran": 6014,
      "präg": 6015,
      "priser": 6016,
      "uppresning": 6017,
      "börjat": 6018,
      "skriva": 6019,
      "förmenande": 6020,
      "##ita": 6021,
      "max": 6022,
      "tvekan": 6023,
      "stått": 6024,
      "veckan": 6025,
      "härvidlag": 6026,
      "##prom": 6027,
      "förverk": 6028,
      "restrik": 6029,
      "For": 6030,
      "används": 6031,
      "deltaga": 6032,
      "förslagsanslag": 6033,
      "given": 6034,
      "Statens": 6035,
      "avsl": 6036,
      "diskrimin": 6037,
      "##juder": 6038,
      "general": 6039,
      "##sreg": 6040,
      "##arens": 6041,
      "Gustafsson": 6042,
      "landstingen": 6043,
      "förståelse": 6044,
      "monopol": 6045,
      "fungerande": 6046,
      "##jem": 6047,
      "##ismen": 6048,
      "##ager": 6049,
      "pekar": 6050,
      "##til": 6051,
      "Jonsson": 6052,
      "verklighet": 6053,
      "väd": 6054,
      "uppsk": 6055,
      "Nils": 6056,
      "lemna": 6057,
      "blefve": 6058,
      "##RA": 6059,
      "And": 6060,
      "SVEN": 6061,
      "##ee": 6062,
      "styrka": 6063,
      "##olu": 6064,
      "Carlsson": 6065,
      "##REN": 6066,
      "##uc": 6067,
      "##skåd": 6068,
      "##ELL": 6069,
      "utföra": 6070,
      "##ateriel": 6071,
      "ledningen": 6072,
      "tillstyrka": 6073,
      "fäll": 6074,
      "tjenstem": 6075,
      "förklaring": 6076,
      "##förstånd": 6077,
      "##året": 6078,
      "återremiss": 6079,
      "synas": 6080,
      "avgöra": 6081,
      "fot": 6082,
      "##onder": 6083,
      "företrä": 6084,
      "inträffat": 6085,
      "bens": 6086,
      "##opa": 6087,
      "##tter": 6088,
      "befattningshavare": 6089,
      "olägenheter": 6090,
      "1950": 6091,
      "bryta": 6092,
      "##ovjet": 6093,
      "betona": 6094,
      "förklarat": 6095,
      "fastighets": 6096,
      "Punkterna": 6097,
      "bostadsbygg": 6098,
      "##släget": 6099,
      "allvarlig": 6100,
      "parter": 6101,
      "öppet": 6102,
      "därpå": 6103,
      "femte": 6104,
      "mandatperi": 6105,
      "##männ": 6106,
      "derpå": 6107,
      "invån": 6108,
      "tänkte": 6109,
      "förening": 6110,
      "ERIK": 6111,
      "##fvas": 6112,
      "Len": 6113,
      "Stor": 6114,
      "##friheten": 6115,
      "..": 6116,
      "##terade": 6117,
      "##nart": 6118,
      "##vak": 6119,
      "redovisas": 6120,
      "sten": 6121,
      "överväga": 6122,
      "avgivits": 6123,
      "Ul": 6124,
      "##urit": 6125,
      "vinter": 6126,
      "äl": 6127,
      "##vägen": 6128,
      "##lingar": 6129,
      "##ärkt": 6130,
      "##risten": 6131,
      "''": 6132,
      "$$": 6133,
      "##skostnader": 6134,
      "##eminari": 6135,
      "menade": 6136,
      "##vägande": 6137,
      "minsta": 6138,
      "##visionen": 6139,
      "##stiska": 6140,
      "##ötet": 6141,
      "behöfva": 6142,
      "120": 6143,
      "1967": 6144,
      "amerik": 6145,
      "##skrivning": 6146,
      "faller": 6147,
      "lyfta": 6148,
      "##IC": 6149,
      "drygt": 6150,
      "##srael": 6151,
      "driver": 6152,
      "millioner": 6153,
      "förmodar": 6154,
      "Os": 6155,
      "påstående": 6156,
      "upprepa": 6157,
      "juster": 6158,
      "föreslog": 6159,
      "omröstnings": 6160,
      "##driv": 6161,
      "interp": 6162,
      "##gräns": 6163,
      "metod": 6164,
      "rådet": 6165,
      "##lagd": 6166,
      "grö": 6167,
      "paragrafen": 6168,
      "studi": 6169,
      "avseendet": 6170,
      "##present": 6171,
      "Konungens": 6172,
      "bifallas": 6173,
      "##usik": 6174,
      "sjuka": 6175,
      "##unga": 6176,
      "undersöka": 6177,
      "##rog": 6178,
      "##bal": 6179,
      "sssss": 6180,
      "balans": 6181,
      "##uster": 6182,
      "##strä": 6183,
      "jordbruksutskottet": 6184,
      "snabbare": 6185,
      "##edlar": 6186,
      "eleverna": 6187,
      "kollektiva": 6188,
      "kn": 6189,
      "parterna": 6190,
      "kyrkan": 6191,
      "samord": 6192,
      "tilläggs": 6193,
      "jämfört": 6194,
      "##gångar": 6195,
      "##omröst": 6196,
      "konkurrenskraft": 6197,
      "##nerligen": 6198,
      "upplysningar": 6199,
      "Sand": 6200,
      "ävensom": 6201,
      "##kra": 6202,
      "fält": 6203,
      "1968": 6204,
      "främsta": 6205,
      "##cks": 6206,
      "investerings": 6207,
      "kategor": 6208,
      "##erner": 6209,
      "##orten": 6210,
      "jordbruksministern": 6211,
      "konsumenterna": 6212,
      "##bi": 6213,
      "bristande": 6214,
      "märkligt": 6215,
      "högern": 6216,
      "Ann": 6217,
      "sistnämnda": 6218,
      "lade": 6219,
      "täm": 6220,
      "##orterna": 6221,
      "handen": 6222,
      "Magnu": 6223,
      "materiel": 6224,
      "rub": 6225,
      "genomsnitt": 6226,
      "omfatta": 6227,
      "##dist": 6228,
      "##sförhåll": 6229,
      "domän": 6230,
      "reag": 6231,
      "##cellens": 6232,
      "vecka": 6233,
      "bränvin": 6234,
      "##smäss": 6235,
      "##edagog": 6236,
      "Jordbruks": 6237,
      "Gre": 6238,
      "massa": 6239,
      "##LUND": 6240,
      "kombin": 6241,
      "##dal": 6242,
      "erforderliga": 6243,
      "##änderna": 6244,
      "##kn": 6245,
      "försvarsministern": 6246,
      "##iod": 6247,
      "inträffa": 6248,
      "##bok": 6249,
      "flick": 6250,
      "redovisa": 6251,
      "inh": 6252,
      "##reter": 6253,
      "Bor": 6254,
      "##erier": 6255,
      "Särskil": 6256,
      "risker": 6257,
      "Skåne": 6258,
      "dela": 6259,
      "ag": 6260,
      "kosta": 6261,
      "riksg": 6262,
      "äfv": 6263,
      "1969": 6264,
      "handläggning": 6265,
      "tämligen": 6266,
      "##sköter": 6267,
      "glädje": 6268,
      "utbetal": 6269,
      "hemställde": 6270,
      "##RE": 6271,
      "##departementets": 6272,
      "##ÉN": 6273,
      "upprätthålla": 6274,
      "falla": 6275,
      "påminna": 6276,
      "läroverk": 6277,
      "tendens": 6278,
      "##rorna": 6279,
      "##kvist": 6280,
      "##ekonom": 6281,
      "modell": 6282,
      "gränser": 6283,
      "##ilja": 6284,
      "herrarne": 6285,
      "fakta": 6286,
      "historia": 6287,
      "rättssäker": 6288,
      "agera": 6289,
      "##konjunktur": 6290,
      "##sarbete": 6291,
      "framföra": 6292,
      "ry": 6293,
      "tillstyrkt": 6294,
      "följt": 6295,
      "frågade": 6296,
      "färre": 6297,
      "##stillfällen": 6298,
      "##skolans": 6299,
      "nämnt": 6300,
      "anmärknings": 6301,
      "##skrona": 6302,
      "stads": 6303,
      "anställning": 6304,
      "finansiering": 6305,
      "begagna": 6306,
      "desto": 6307,
      "beford": 6308,
      "besvara": 6309,
      "##ang": 6310,
      "##jäna": 6311,
      "period": 6312,
      "LARS": 6313,
      "omröstningsapparat": 6314,
      "##rations": 6315,
      "förläng": 6316,
      "##ici": 6317,
      "häm": 6318,
      "departementet": 6319,
      "Frank": 6320,
      "##stu": 6321,
      "avveck": 6322,
      "skogen": 6323,
      "narkotika": 6324,
      "alltmer": 6325,
      "##sprocess": 6326,
      "prote": 6327,
      "kritiser": 6328,
      "##bildnings": 6329,
      "##ENA": 6330,
      "räknat": 6331,
      "##ktenskap": 6332,
      "bidrar": 6333,
      "Val": 6334,
      "##entet": 6335,
      "tveksam": 6336,
      "krono": 6337,
      "gruppen": 6338,
      "hälsa": 6339,
      "##kunskap": 6340,
      "beläg": 6341,
      "##krets": 6342,
      "kommission": 6343,
      "känsla": 6344,
      "kommunikationsministern": 6345,
      "påverkar": 6346,
      "tagits": 6347,
      "består": 6348,
      "aktiebolag": 6349,
      "erkänner": 6350,
      "##fullmäktige": 6351,
      "staden": 6352,
      "tillämpa": 6353,
      "värdet": 6354,
      "sprid": 6355,
      "inre": 6356,
      "dåliga": 6357,
      "##belopp": 6358,
      "långsiktigt": 6359,
      "förviss": 6360,
      "ecklesiastik": 6361,
      "##aktig": 6362,
      "omständigheten": 6363,
      "##sbänken": 6364,
      "tids": 6365,
      "negativa": 6366,
      "utländ": 6367,
      "ack": 6368,
      "bankoutskottets": 6369,
      "spara": 6370,
      "##fattning": 6371,
      "rikta": 6372,
      "##ägarna": 6373,
      "Wi": 6374,
      "##budgeten": 6375,
      "Lennart": 6376,
      "våga": 6377,
      "##kat": 6378,
      "##styrelse": 6379,
      "vuxen": 6380,
      "part": 6381,
      "värd": 6382,
      "##skontroll": 6383,
      "standard": 6384,
      "Ros": 6385,
      "ret": 6386,
      "öfvervägande": 6387,
      "oft": 6388,
      "framställts": 6389,
      "##komna": 6390,
      "kallar": 6391,
      "jordbruksutskottets": 6392,
      "innebar": 6393,
      "sällan": 6394,
      "förhind": 6395,
      "##ostad": 6396,
      "Åt": 6397,
      "åtgärderna": 6398,
      "##ätet": 6399,
      "utjäm": 6400,
      "framställda": 6401,
      "Ryssland": 6402,
      "##gruppen": 6403,
      "##program": 6404,
      "##bu": 6405,
      "löneregl": 6406,
      "ras": 6407,
      "##jell": 6408,
      "##AB": 6409,
      "världens": 6410,
      "dok": 6411,
      "##berätt": 6412,
      "Arbetsmark": 6413,
      "räkning": 6414,
      "arrendator": 6415,
      "framlagt": 6416,
      "Därvid": 6417,
      "##rett": 6418,
      "rikets": 6419,
      "överskott": 6420,
      "folkomröst": 6421,
      "##ugust": 6422,
      "samarbet": 6423,
      "professor": 6424,
      "Björn": 6425,
      "kronan": 6426,
      "egnahem": 6427,
      "klokt": 6428,
      "##rister": 6429,
      "bensin": 6430,
      "##änkt": 6431,
      "Eng": 6432,
      "takt": 6433,
      "##aterial": 6434,
      "##fond": 6435,
      "efterfrågan": 6436,
      "Proposition": 6437,
      "Öst": 6438,
      "behör": 6439,
      "Be": 6440,
      "##ningsan": 6441,
      "Gäv": 6442,
      "##ssjuk": 6443,
      "##ert": 6444,
      "gällt": 6445,
      "tullen": 6446,
      "lagens": 6447,
      "##igande": 6448,
      "socialförsäkring": 6449,
      "kvinnorna": 6450,
      "##splats": 6451,
      "##örn": 6452,
      "garan": 6453,
      "statsrådets": 6454,
      "##beredningen": 6455,
      "rädda": 6456,
      "ägna": 6457,
      "Karin": 6458,
      "##skade": 6459,
      "Magnusson": 6460,
      "välj": 6461,
      "stimulera": 6462,
      "skapas": 6463,
      "##utveckling": 6464,
      "fundera": 6465,
      "##incipen": 6466,
      "reduc": 6467,
      "äktenskap": 6468,
      "skatterna": 6469,
      "fullmäktige": 6470,
      "##unden": 6471,
      "synpunkten": 6472,
      "##ären": 6473,
      "biträda": 6474,
      "pressen": 6475,
      "förvån": 6476,
      "försäk": 6477,
      "frånvarande": 6478,
      "Gävle": 6479,
      "##ituationen": 6480,
      "##skyldighet": 6481,
      "##smakten": 6482,
      "utby": 6483,
      "fackliga": 6484,
      "stol": 6485,
      "ann": 6486,
      "Hagberg": 6487,
      "##MAR": 6488,
      "spek": 6489,
      "motverka": 6490,
      "1962": 6491,
      "Väst": 6492,
      "kontin": 6493,
      "Grefve": 6494,
      "bekrä": 6495,
      "människa": 6496,
      "rust": 6497,
      "mottag": 6498,
      "##höjning": 6499,
      "motsvarar": 6500,
      "härför": 6501,
      "fullständig": 6502,
      "##bruket": 6503,
      "priserna": 6504,
      "##ventioner": 6505,
      "samlade": 6506,
      "drabbar": 6507,
      "##mät": 6508,
      "bemynd": 6509,
      "värnpliktiga": 6510,
      "ansluta": 6511,
      "jämväl": 6512,
      "fängelse": 6513,
      "tycka": 6514,
      "förts": 6515,
      "långsiktiga": 6516,
      "framkommit": 6517,
      "##produktion": 6518,
      "Friherre": 6519,
      "småföretag": 6520,
      "##rörelse": 6521,
      "anhållan": 6522,
      "känt": 6523,
      "##eff": 6524,
      "##sttag": 6525,
      "betyda": 6526,
      "egenskap": 6527,
      "ek": 6528,
      "önskvärd": 6529,
      "taxering": 6530,
      "omröstningen": 6531,
      "##ombuds": 6532,
      "##tygelse": 6533,
      "tittar": 6534,
      "##astrof": 6535,
      "##une": 6536,
      "reformen": 6537,
      "publ": 6538,
      "ass": 6539,
      "framhåller": 6540,
      "medborgarna": 6541,
      "utsatt": 6542,
      "110": 6543,
      "redogörelse": 6544,
      "resurserna": 6545,
      "au": 6546,
      "##eger": 6547,
      "##föring": 6548,
      "afse": 6549,
      "utb": 6550,
      "förelåg": 6551,
      "minoritet": 6552,
      "Gustav": 6553,
      "subvention": 6554,
      "LIND": 6555,
      "skul": 6556,
      "tillsyn": 6557,
      "##ands": 6558,
      "ändamålet": 6559,
      "ställe": 6560,
      "malm": 6561,
      "angif": 6562,
      "##rarnas": 6563,
      "röra": 6564,
      "##rak": 6565,
      "##abrik": 6566,
      "mak": 6567,
      "##annmål": 6568,
      "##rike": 6569,
      "pratar": 6570,
      "metoder": 6571,
      "##ifvel": 6572,
      "reklam": 6573,
      "##ris": 6574,
      "##ortera": 6575,
      "hållbar": 6576,
      "byggnader": 6577,
      "yttranden": 6578,
      "Viss": 6579,
      "prest": 6580,
      "värre": 6581,
      "##äter": 6582,
      "tidningar": 6583,
      "farh": 6584,
      "tjänstgöring": 6585,
      "biblio": 6586,
      "välfärden": 6587,
      "miljön": 6588,
      "##olin": 6589,
      "Öre": 6590,
      "återstår": 6591,
      "##sproduk": 6592,
      "##banan": 6593,
      "##sförslag": 6594,
      "sannerligen": 6595,
      "betänkligheter": 6596,
      "sem": 6597,
      "skiljer": 6598,
      "nöjd": 6599,
      "uppehåll": 6600,
      "##trafiken": 6601,
      "angelägna": 6602,
      "angelägen": 6603,
      "enhälligt": 6604,
      "dåvarande": 6605,
      "Föl": 6606,
      "##sföretag": 6607,
      "diskussioner": 6608,
      "träda": 6609,
      "intresserade": 6610,
      "utformning": 6611,
      "uppfy": 6612,
      "gjord": 6613,
      "kust": 6614,
      "ifall": 6615,
      "pat": 6616,
      "upplysning": 6617,
      "uppehålla": 6618,
      "##U1": 6619,
      "suppleanter": 6620,
      "do": 6621,
      "inskränka": 6622,
      "##rämjande": 6623,
      "##speriod": 6624,
      "Kalmar": 6625,
      "omfattar": 6626,
      "##usentals": 6627,
      "ersättnings": 6628,
      "##GREN": 6629,
      "teleg": 6630,
      "lek": 6631,
      "##IR": 6632,
      "härad": 6633,
      "linjen": 6634,
      "##kass": 6635,
      "föres": 6636,
      "maxim": 6637,
      "jordbrukarna": 6638,
      "##underlag": 6639,
      "Lik": 6640,
      "jorden": 6641,
      "påpekat": 6642,
      "Thor": 6643,
      "fullföl": 6644,
      "syftet": 6645,
      "##ses": 6646,
      "domstolen": 6647,
      "##ned": 6648,
      "praktisk": 6649,
      "##världen": 6650,
      "107": 6651,
      "uppgiften": 6652,
      "-,": 6653,
      "tillför": 6654,
      "...": 6655,
      "påstår": 6656,
      "friheten": 6657,
      "återkommer": 6658,
      "Värm": 6659,
      "##nivå": 6660,
      "##urser": 6661,
      "tillämpningen": 6662,
      "##ländska": 6663,
      "avstod": 6664,
      "bekämp": 6665,
      "##oo": 6666,
      "Gotland": 6667,
      "##alerna": 6668,
      "pot": 6669,
      "industrien": 6670,
      "Ed": 6671,
      "##umenter": 6672,
      "##stödet": 6673,
      "Fredrik": 6674,
      "radio": 6675,
      "hyser": 6676,
      "##organisationer": 6677,
      "##spartiet": 6678,
      "föredrogs": 6679,
      "kommentar": 6680,
      "##ip": 6681,
      "ökas": 6682,
      "fys": 6683,
      "tillräckliga": 6684,
      "kem": 6685,
      "kraven": 6686,
      "stärk": 6687,
      "##ccess": 6688,
      "##tex": 6689,
      "hållas": 6690,
      "dör": 6691,
      "##emen": 6692,
      "##örja": 6693,
      "##ALL": 6694,
      "rösträkning": 6695,
      "1964": 6696,
      "folkets": 6697,
      "##tryck": 6698,
      "##sstat": 6699,
      "##gjorde": 6700,
      "lokaler": 6701,
      "registr": 6702,
      "konstruk": 6703,
      "##no": 6704,
      "härav": 6705,
      "##nöj": 6706,
      "Sa": 6707,
      "terror": 6708,
      "grundval": 6709,
      "##belt": 6710,
      "viktigare": 6711,
      "Allians": 6712,
      "innehållet": 6713,
      "ägt": 6714,
      "spela": 6715,
      "kortare": 6716,
      "OL": 6717,
      "kart": 6718,
      "hårda": 6719,
      "barnfamilj": 6720,
      "##pati": 6721,
      "växer": 6722,
      "arbetsplats": 6723,
      "##varna": 6724,
      "stycket": 6725,
      "##rem": 6726,
      "dervid": 6727,
      "##slin": 6728,
      "konflikt": 6729,
      "rubrik": 6730,
      "upptäck": 6731,
      "AR": 6732,
      "##US": 6733,
      "myck": 6734,
      "ING": 6735,
      "##örjningen": 6736,
      "taxerings": 6737,
      "växande": 6738,
      "Staten": 6739,
      "olje": 6740,
      "länet": 6741,
      "##fält": 6742,
      "meddelade": 6743,
      "Hen": 6744,
      "utök": 6745,
      "me": 6746,
      "redovisning": 6747,
      "##vän": 6748,
      "##görelsen": 6749,
      "intryck": 6750,
      "Bör": 6751,
      "##näringen": 6752,
      "##ementet": 6753,
      "akadem": 6754,
      "demokratin": 6755,
      "inser": 6756,
      "##ula": 6757,
      "skolorna": 6758,
      "##pligt": 6759,
      "flertal": 6760,
      "telefon": 6761,
      "möter": 6762,
      "1958": 6763,
      "sank": 6764,
      "erhållit": 6765,
      "överhuvud": 6766,
      "##riga": 6767,
      "Örebro": 6768,
      "verkan": 6769,
      "ägar": 6770,
      "avsett": 6771,
      "##skyddet": 6772,
      "Förslag": 6773,
      "##hman": 6774,
      "##kam": 6775,
      "detaljer": 6776,
      "korre": 6777,
      "kvalific": 6778,
      "indel": 6779,
      "##skning": 6780,
      "följaktligen": 6781,
      "##ont": 6782,
      "Frankrike": 6783,
      "utskottsbet": 6784,
      "##pren": 6785,
      "nödvändigheten": 6786,
      "väntar": 6787,
      "följden": 6788,
      "##sr": 6789,
      "##up": 6790,
      "Kommer": 6791,
      "Ryd": 6792,
      "framfört": 6793,
      "LO": 6794,
      "undervis": 6795,
      "##handlingen": 6796,
      "##tekn": 6797,
      "genomförande": 6798,
      "kansli": 6799,
      "spekul": 6800,
      "föreställer": 6801,
      "##tog": 6802,
      "##cka": 6803,
      "säkerställa": 6804,
      "##tional": 6805,
      "dialog": 6806,
      "återupp": 6807,
      "framförts": 6808,
      "1965": 6809,
      "excellens": 6810,
      "länsstyrelsen": 6811,
      "elem": 6812,
      "to": 6813,
      "engel": 6814,
      "##stält": 6815,
      "anlit": 6816,
      "##slän": 6817,
      "upplever": 6818,
      "interpellan": 6819,
      "Ljung": 6820,
      "##risk": 6821,
      "##usten": 6822,
      "hävdar": 6823,
      "konkurrensen": 6824,
      "nämnden": 6825,
      "granska": 6826,
      "##repren": 6827,
      "tex": 6828,
      "frivilliga": 6829,
      "700": 6830,
      "tillgångar": 6831,
      "##VIST": 6832,
      "skydds": 6833,
      "##egium": 6834,
      "success": 6835,
      "arbetstillfällen": 6836,
      "##bank": 6837,
      "arbetarna": 6838,
      "bolags": 6839,
      "##skansliet": 6840,
      "föror": 6841,
      "statsrådsprotokollet": 6842,
      "Regeringens": 6843,
      "kommentera": 6844,
      "Bidrag": 6845,
      "##sbild": 6846,
      "nationell": 6847,
      "##lare": 6848,
      "kult": 6849,
      "beskri": 6850,
      "lapp": 6851,
      "Petersson": 6852,
      "behandlat": 6853,
      "##atiska": 6854,
      "grundlagen": 6855,
      "skrev": 6856,
      "bonde": 6857,
      "bestrida": 6858,
      "prem": 6859,
      "satsar": 6860,
      "bibehålla": 6861,
      "Anna": 6862,
      "nedsättning": 6863,
      "påtal": 6864,
      "##regeringen": 6865,
      "##ftet": 6866,
      "Votering": 6867,
      "##ule": 6868,
      "arbetat": 6869,
      "beräkning": 6870,
      "##ledningen": 6871,
      "##eform": 6872,
      "##ändringar": 6873,
      "besparing": 6874,
      "centern": 6875,
      "fordras": 6876,
      "##alisering": 6877,
      "dags": 6878,
      "bekämpa": 6879,
      "mjölk": 6880,
      "##örerna": 6881,
      "101": 6882,
      "##domar": 6883,
      "upphä": 6884,
      "känsl": 6885,
      "borttag": 6886,
      "NIL": 6887,
      "komprom": 6888,
      "fattades": 6889,
      "Motion": 6890,
      "PET": 6891,
      "moral": 6892,
      "Hade": 6893,
      "##anten": 6894,
      "##förslaget": 6895,
      "betrakta": 6896,
      "##STA": 6897,
      "framhållits": 6898,
      "lämnades": 6899,
      "##propri": 6900,
      "vanlig": 6901,
      "punkterna": 6902,
      "industriministern": 6903,
      "tyng": 6904,
      "ställdes": 6905,
      "##istiskt": 6906,
      "Hög": 6907,
      "arbetstag": 6908,
      "##beräk": 6909,
      "sträng": 6910,
      "##pas": 6911,
      "påtag": 6912,
      "##inspek": 6913,
      "fackfören": 6914,
      "skrivning": 6915,
      "##bygga": 6916,
      "gag": 6917,
      "makten": 6918,
      "nämnd": 6919,
      "Björk": 6920,
      "105": 6921,
      "##erades": 6922,
      "##skrig": 6923,
      "tidning": 6924,
      "2015": 6925,
      "föreningar": 6926,
      "frågans": 6927,
      "särdeles": 6928,
      "tillkommit": 6929,
      "Bå": 6930,
      "##ränsen": 6931,
      "orikt": 6932,
      "perman": 6933,
      "IT": 6934,
      "nere": 6935,
      "##betet": 6936,
      "föd": 6937,
      "kärnvapen": 6938,
      "##förvaltningen": 6939,
      "Lindhagen": 6940,
      "Werner": 6941,
      "##bord": 6942,
      "Trafik": 6943,
      "berättigade": 6944,
      "deltagande": 6945,
      "arbetsmiljö": 6946,
      "musik": 6947,
      "##iösa": 6948,
      "inflation": 6949,
      "höjda": 6950,
      "##prövning": 6951,
      "utslag": 6952,
      "föräldrarna": 6953,
      "##liggande": 6954,
      "##verkar": 6955,
      "uppgår": 6956,
      "åtag": 6957,
      "behandlade": 6958,
      "onödigt": 6959,
      "##sbolag": 6960,
      "##änning": 6961,
      "##lagts": 6962,
      "##skommitté": 6963,
      "1963": 6964,
      "delade": 6965,
      "prövas": 6966,
      "spannmål": 6967,
      "##givning": 6968,
      "befintliga": 6969,
      "gagn": 6970,
      "byggas": 6971,
      "sysselsättnings": 6972,
      "båt": 6973,
      "bekost": 6974,
      "miljard": 6975,
      "public": 6976,
      "##xel": 6977,
      "##ynt": 6978,
      "1947": 6979,
      "##storp": 6980,
      "förmåner": 6981,
      "kläm": 6982,
      "Lena": 6983,
      "##sex": 6984,
      "befäl": 6985,
      "1956": 6986,
      "lyssna": 6987,
      "Tvärtom": 6988,
      "vunnit": 6989,
      "##ow": 6990,
      "ändras": 6991,
      "tillverkning": 6992,
      "enär": 6993,
      "obser": 6994,
      "funktions": 6995,
      "etc": 6996,
      "generellt": 6997,
      "##bäck": 6998,
      "fattar": 6999,
      "voteringspropositionen": 7000,
      "##föranden": 7001,
      "byggande": 7002,
      "stadg": 7003,
      "Dal": 7004,
      "gynnsam": 7005,
      "kalk": 7006,
      "Gran": 7007,
      "ledamöterna": 7008,
      "##inkomst": 7009,
      "tung": 7010,
      "behandlats": 7011,
      "hennes": 7012,
      "Skatte": 7013,
      "##imin": 7014,
      "komplic": 7015,
      "oakt": 7016,
      "##antz": 7017,
      "Huru": 7018,
      "##evill": 7019,
      "ifrågasatta": 7020,
      "träng": 7021,
      "##handlingar": 7022,
      "avsevärt": 7023,
      "##gäng": 7024,
      "yrkats": 7025,
      "foster": 7026,
      "pedagog": 7027,
      "framstäl": 7028,
      "Eller": 7029,
      "##åldern": 7030,
      "lind": 7031,
      "##qu": 7032,
      "lagförslaget": 7033,
      "brev": 7034,
      "låtit": 7035,
      "eger": 7036,
      "beräkningar": 7037,
      "belast": 7038,
      "##organisationerna": 7039,
      "orsaken": 7040,
      "##låder": 7041,
      "inkl": 7042,
      "skolöver": 7043,
      "##OLM": 7044,
      "##kny": 7045,
      "position": 7046,
      "##öra": 7047,
      "##gav": 7048,
      "underteck": 7049,
      "log": 7050,
      "lades": 7051,
      "Ström": 7052,
      "##eriet": 7053,
      "åstadkomm": 7054,
      "Kjell": 7055,
      "##mat": 7056,
      "##iffer": 7057,
      "sjunk": 7058,
      "125": 7059,
      "teor": 7060,
      "he": 7061,
      "betalas": 7062,
      "1939": 7063,
      "förtjän": 7064,
      "##ressen": 7065,
      "##given": 7066,
      "##dex": 7067,
      "försäkra": 7068,
      "döma": 7069,
      "##nämnderna": 7070,
      "skattebetal": 7071,
      "fråge": 7072,
      "aktier": 7073,
      "##ologisk": 7074,
      "styra": 7075,
      "eniga": 7076,
      "växa": 7077,
      "Fram": 7078,
      "pa": 7079,
      "poäng": 7080,
      "utmärkt": 7081,
      "##entlig": 7082,
      "uppför": 7083,
      "ansetts": 7084,
      "heder": 7085,
      "Visserligen": 7086,
      "hjär": 7087,
      "refer": 7088,
      "omständighet": 7089,
      "planer": 7090,
      "nöja": 7091,
      "Ge": 7092,
      "företags": 7093,
      "##ges": 7094,
      "##emente": 7095,
      "bero": 7096,
      "expropri": 7097,
      "##ningssäll": 7098,
      "medger": 7099,
      "##förmedlingen": 7100,
      "Åker": 7101,
      "##sättande": 7102,
      "John": 7103,
      "##åriga": 7104,
      "utförs": 7105,
      "penningar": 7106,
      "Israel": 7107,
      "##fria": 7108,
      "dyrtid": 7109,
      "utvidgning": 7110,
      "kontakter": 7111,
      "##arbeten": 7112,
      "uppstått": 7113,
      "infördes": 7114,
      "försökte": 7115,
      "Herrar": 7116,
      "trygga": 7117,
      "institutioner": 7118,
      "##sbestämm": 7119,
      "bos": 7120,
      "ration": 7121,
      "fastigheter": 7122,
      "poliser": 7123,
      "##skiftet": 7124,
      "##regleringen": 7125,
      "offici": 7126,
      "hemman": 7127,
      "##rument": 7128,
      "bilda": 7129,
      "diskuteras": 7130,
      "prom": 7131,
      "reservationsanslag": 7132,
      "qvar": 7133,
      "ensid": 7134,
      "##utvecklingen": 7135,
      "införas": 7136,
      "medlen": 7137,
      "Härmed": 7138,
      "semester": 7139,
      "omnäm": 7140,
      "##tals": 7141,
      "103": 7142,
      "djupt": 7143,
      "aktualis": 7144,
      "bränn": 7145,
      "Lule": 7146,
      "skolans": 7147,
      "invandrar": 7148,
      "betydelsen": 7149,
      "##iserade": 7150,
      "höjas": 7151,
      "##äldskontoret": 7152,
      "ansökan": 7153,
      "tillgängliga": 7154,
      "##lösa": 7155,
      "sälj": 7156,
      "tillförs": 7157,
      "##värden": 7158,
      "värden": 7159,
      "FR": 7160,
      "1946": 7161,
      "avvakt": 7162,
      "forskningen": 7163,
      "erkännande": 7164,
      "##sid": 7165,
      "obeh": 7166,
      "provisor": 7167,
      "självklar": 7168,
      "värna": 7169,
      "##rater": 7170,
      "##ktiven": 7171,
      "##handlingarna": 7172,
      "dubbel": 7173,
      "##vakning": 7174,
      "mobil": 7175,
      "106": 7176,
      "##spel": 7177,
      "invånare": 7178,
      "angivit": 7179,
      "generella": 7180,
      "anställa": 7181,
      "tele": 7182,
      "Gen": 7183,
      "##ellre": 7184,
      "häls": 7185,
      "##forsk": 7186,
      "flyktingar": 7187,
      "Närings": 7188,
      "befunnos": 7189,
      "frig": 7190,
      "trupp": 7191,
      "1966": 7192,
      "genast": 7193,
      "##habil": 7194,
      "##ogad": 7195,
      "Wik": 7196,
      "rapporter": 7197,
      "samordning": 7198,
      "Arbetsmarknads": 7199,
      "åker": 7200,
      "##ament": 7201,
      "Ka": 7202,
      "delega": 7203,
      "slutsatsen": 7204,
      "kass": 7205,
      "##SK": 7206,
      "stöder": 7207,
      "egentliga": 7208,
      "Problem": 7209,
      "##hamn": 7210,
      "##glund": 7211,
      "upphäv": 7212,
      "109": 7213,
      "BO": 7214,
      "##ité": 7215,
      "väst": 7216,
      "##uren": 7217,
      "bestå": 7218,
      "förvaltnings": 7219,
      "Kammare": 7220,
      "##falla": 7221,
      "hvartill": 7222,
      "##resultat": 7223,
      "bolagen": 7224,
      "hänse": 7225,
      "uppdraget": 7226,
      "##tik": 7227,
      "##urk": 7228,
      "rummet": 7229,
      "104": 7230,
      "målen": 7231,
      "skälen": 7232,
      "1959": 7233,
      "bankoutskottet": 7234,
      "sänkt": 7235,
      "##system": 7236,
      "tillträ": 7237,
      "Dom": 7238,
      "faktorer": 7239,
      "bidraga": 7240,
      "Gud": 7241,
      "Justitie": 7242,
      "öfvertygad": 7243,
      "ersätta": 7244,
      "varu": 7245,
      "##ions": 7246,
      "Eva": 7247,
      "bevara": 7248,
      "funktion": 7249,
      "riksdagsordningen": 7250,
      "##beslut": 7251,
      "minskas": 7252,
      "förvärv": 7253,
      "Ingvar": 7254,
      "Visst": 7255,
      "##emanget": 7256,
      "åtskilligt": 7257,
      "##landet": 7258,
      "##ärt": 7259,
      "##pplåder": 7260,
      "1951": 7261,
      "igång": 7262,
      "tales": 7263,
      "##sförslaget": 7264,
      "##enner": 7265,
      "Mig": 7266,
      "förenade": 7267,
      "handeln": 7268,
      "avveckling": 7269,
      "beting": 7270,
      "##larna": 7271,
      "värdefullt": 7272,
      "vo": 7273,
      "avvik": 7274,
      "Ro": 7275,
      "verkningar": 7276,
      "föga": 7277,
      "##kostnader": 7278,
      "##omas": 7279,
      "UL": 7280,
      "##uta": 7281,
      "statsverket": 7282,
      "växt": 7283,
      "behövas": 7284,
      "effektiva": 7285,
      "förstärkning": 7286,
      "1948": 7287,
      "föras": 7288,
      "utgifts": 7289,
      "bedömningen": 7290,
      "aktörer": 7291,
      "kväll": 7292,
      "tillmötes": 7293,
      "åklag": 7294,
      "##bom": 7295,
      "##anke": 7296,
      "##personal": 7297,
      "##sfören": 7298,
      "intresset": 7299,
      "farligt": 7300,
      "##chef": 7301,
      "arr": 7302,
      "##das": 7303,
      "inslag": 7304,
      "diskuterat": 7305,
      "Börje": 7306,
      "intill": 7307,
      "minskade": 7308,
      "Regering": 7309,
      "2014": 7310,
      "eventuella": 7311,
      "skattel": 7312,
      "vind": 7313,
      "olägenhet": 7314,
      "förmodligen": 7315,
      "äfvensom": 7316,
      "##enser": 7317,
      "uppskjut": 7318,
      "barnet": 7319,
      "känns": 7320,
      "##må": 7321,
      "företogs": 7322,
      "vidtagas": 7323,
      "##JÖR": 7324,
      "konfer": 7325,
      "108": 7326,
      "##smynd": 7327,
      "stycken": 7328,
      "stämpel": 7329,
      "##motion": 7330,
      "transporter": 7331,
      "barns": 7332,
      "##säkt": 7333,
      "banan": 7334,
      "tomt": 7335,
      "verksamheter": 7336,
      "130": 7337,
      "##tis": 7338,
      "lägenhet": 7339,
      "förebyggande": 7340,
      "hellre": 7341,
      "begränsad": 7342,
      "##pacitet": 7343,
      "ning": 7344,
      "Parti": 7345,
      "##stitutions": 7346,
      "##slöst": 7347,
      "noterar": 7348,
      "bekräft": 7349,
      "ställs": 7350,
      "underskott": 7351,
      "##sätts": 7352,
      "anmälan": 7353,
      "utnyttjas": 7354,
      "citera": 7355,
      "siffra": 7356,
      "desamma": 7357,
      "##stalten": 7358,
      "##understöd": 7359,
      "1949": 7360,
      "beklaga": 7361,
      "Utan": 7362,
      "140": 7363,
      "Sta": 7364,
      "##skatter": 7365,
      "stämmer": 7366,
      "Bland": 7367,
      "1957": 7368,
      "norska": 7369,
      "1945": 7370,
      "kontrakt": 7371,
      "lönen": 7372,
      "varande": 7373,
      "##hållet": 7374,
      "##anson": 7375,
      "uttag": 7376,
      "spår": 7377,
      "Ska": 7378,
      "##ktyg": 7379,
      "##skapen": 7380,
      "fas": 7381,
      "påpekade": 7382,
      "##syrk": 7383,
      "111": 7384,
      "otillräck": 7385,
      "##ritt": 7386,
      "reak": 7387,
      "##ublik": 7388,
      "rubb": 7389,
      "tacksam": 7390,
      "##baks": 7391,
      "hänvisade": 7392,
      "Fran": 7393,
      "Sovjet": 7394,
      "##avgifter": 7395,
      "##undersök": 7396,
      "-—": 7397,
      "kraftiga": 7398,
      "##gnos": 7399,
      "##garanti": 7400,
      "rättegång": 7401,
      "principiellt": 7402,
      "stry": 7403,
      "begärdes": 7404,
      "##ningsrätt": 7405,
      "utomlands": 7406,
      "beviljas": 7407,
      "##skommun": 7408,
      "omdöme": 7409,
      "missnöj": 7410,
      "perio": 7411,
      "ext": 7412,
      "102": 7413,
      "erbjuda": 7414,
      "uppgå": 7415,
      "hvarom": 7416,
      "##förbätt": 7417,
      "##ägt": 7418,
      "byråk": 7419,
      "Hj": 7420,
      "##din": 7421,
      "tänkas": 7422,
      "tusen": 7423,
      "##titet": 7424,
      "verkställa": 7425,
      "krisen": 7426,
      "Vatten": 7427,
      "##oritets": 7428,
      "botten": 7429,
      "##tu": 7430,
      "förber": 7431,
      "vist": 7432,
      "##gården": 7433,
      "teoret": 7434,
      "tät": 7435,
      "##gitta": 7436,
      "CARL": 7437,
      "##smålet": 7438,
      "gre": 7439,
      "hamn": 7440,
      "upprör": 7441,
      "suppleant": 7442,
      "remissinst": 7443,
      "naturliga": 7444,
      "bestämmer": 7445,
      "##strid": 7446,
      "katastrof": 7447,
      "studera": 7448,
      "ofant": 7449,
      "##IT": 7450,
      "medverkan": 7451,
      "tillsätta": 7452,
      "angelägenhet": 7453,
      "tillhöra": 7454,
      "noggran": 7455,
      "Norrbottens": 7456,
      "##djur": 7457,
      "riksdagsbeslut": 7458,
      "##xi": 7459,
      "rehabil": 7460,
      "folkhög": 7461,
      "Hammar": 7462,
      "resor": 7463,
      "riksdagsledam": 7464,
      "Samman": 7465,
      "upphöra": 7466,
      "folkparti": 7467,
      "Kultur": 7468,
      "sch": 7469,
      "utaf": 7470,
      "##avdrag": 7471,
      "hvars": 7472,
      "anmälde": 7473,
      "fastän": 7474,
      "strategi": 7475,
      "##iges": 7476,
      "##slösa": 7477,
      "hänger": 7478,
      "kraftig": 7479,
      "Jäm": 7480,
      "ljus": 7481,
      "egendomligt": 7482,
      "##äster": 7483,
      "##spar": 7484,
      "##hållande": 7485,
      "##ieringen": 7486,
      "Un": 7487,
      "##anterna": 7488,
      "beklagligt": 7489,
      "##utjäm": 7490,
      "därvidlag": 7491,
      "##iteter": 7492,
      "ankny": 7493,
      "högskolan": 7494,
      "biståndet": 7495,
      "förnu": 7496,
      "##före": 7497,
      "lydande": 7498,
      "##ach": 7499,
      "ok": 7500,
      "Konstitutions": 7501,
      "uppoff": 7502,
      "2006": 7503,
      "veter": 7504,
      "arbetslivet": 7505,
      "##elius": 7506,
      "##öjlighet": 7507,
      "Naturligtvis": 7508,
      "##stera": 7509,
      "primär": 7510,
      "Luleå": 7511,
      "intresserad": 7512,
      "entrepren": 7513,
      "analys": 7514,
      "socialdemokratisk": 7515,
      "##försörjning": 7516,
      "chans": 7517,
      "hushållningssäll": 7518,
      "##jk": 7519,
      "varm": 7520,
      "##ENN": 7521,
      "förvånad": 7522,
      "uttrycket": 7523,
      "flere": 7524,
      "##höjningar": 7525,
      "bestrid": 7526,
      "Gö": 7527,
      "##ssvar": 7528,
      "##sverket": 7529,
      "##bildningen": 7530,
      "bristen": 7531,
      "farhåg": 7532,
      "muse": 7533,
      "mod": 7534,
      "##skor": 7535,
      "förmögenhets": 7536,
      "tolka": 7537,
      "höjd": 7538,
      "##DA": 7539,
      "##förhållandena": 7540,
      "prov": 7541,
      "fristående": 7542,
      "likas": 7543,
      "##kapital": 7544,
      "1955": 7545,
      "hunnit": 7546,
      "##ident": 7547,
      "avgift": 7548,
      "studerande": 7549,
      "##ugusti": 7550,
      "regeringsformen": 7551,
      "2017": 7552,
      "försvåra": 7553,
      "##daf": 7554,
      "självt": 7555,
      "##skrav": 7556,
      "##strand": 7557,
      "##behov": 7558,
      "framställt": 7559,
      "113": 7560,
      "Syd": 7561,
      "##eve": 7562,
      "förnyad": 7563,
      "riksstaten": 7564,
      "tju": 7565,
      "dyrare": 7566,
      "115": 7567,
      "##ckså": 7568,
      "efterly": 7569,
      "äldreoms": 7570,
      "svårigheterna": 7571,
      "bilar": 7572,
      "##bor": 7573,
      "##nek": 7574,
      "medfört": 7575,
      "cy": 7576,
      "representerar": 7577,
      "förstås": 7578,
      "##cer": 7579,
      "##iseringen": 7580,
      "##riper": 7581,
      "stoppa": 7582,
      "uppsattes": 7583,
      "folkpartiets": 7584,
      "verksam": 7585,
      "bilden": 7586,
      "Applåder": 7587,
      "Också": 7588,
      "skapat": 7589,
      "##reglerna": 7590,
      "tjänsteman": 7591,
      "##undervisningen": 7592,
      "organisationerna": 7593,
      "##sborg": 7594,
      "strider": 7595,
      "##spolis": 7596,
      "handikappade": 7597,
      "framgångs": 7598,
      "Hå": 7599,
      "##invester": 7600,
      "na": 7601,
      "staterna": 7602,
      "undgå": 7603,
      "giltighet": 7604,
      "sympati": 7605,
      "ingripa": 7606,
      "hyresg": 7607,
      "SK": 7608,
      "orts": 7609,
      "arrende": 7610,
      "kompromiss": 7611,
      "rimliga": 7612,
      "##stam": 7613,
      "bestående": 7614,
      "##delen": 7615,
      "##iskor": 7616,
      "##sint": 7617,
      "berättigad": 7618,
      "besluten": 7619,
      "långtid": 7620,
      "114": 7621,
      "mångfald": 7622,
      "kulture": 7623,
      "hjälper": 7624,
      "1940": 7625,
      "slutsats": 7626,
      "##CK": 7627,
      "##öfver": 7628,
      "mycken": 7629,
      "förstått": 7630,
      "pensionärer": 7631,
      "lock": 7632,
      "##grad": 7633,
      "nödgas": 7634,
      "begränsade": 7635,
      "Hela": 7636,
      "##itering": 7637,
      "vuxna": 7638,
      "normal": 7639,
      "rym": 7640,
      "talarstolen": 7641,
      "låne": 7642,
      "produktions": 7643,
      "marginal": 7644,
      "##örden": 7645,
      "Margar": 7646,
      "##run": 7647,
      "Försvars": 7648,
      "skriftliga": 7649,
      "begå": 7650,
      "##byggnads": 7651,
      "##änka": 7652,
      "2016": 7653,
      "ändamålsen": 7654,
      "institution": 7655,
      "##institut": 7656,
      "exist": 7657,
      "arbetsmarknadsministern": 7658,
      "sedel": 7659,
      "##ologi": 7660,
      "plöts": 7661,
      "kommersi": 7662,
      "Ume": 7663,
      "112": 7664,
      "interpellationssvar": 7665,
      "erbjud": 7666,
      "##ES": 7667,
      "medvetna": 7668,
      "definitivt": 7669,
      "nam": 7670,
      "inteck": 7671,
      "Riksre": 7672,
      "propag": 7673,
      "##bring": 7674,
      "vänder": 7675,
      "händelser": 7676,
      "barna": 7677,
      "lagutskott": 7678,
      "vidhåller": 7679,
      "##lägger": 7680,
      "ursäkt": 7681,
      "##ktorn": 7682,
      "intressanta": 7683,
      "lärer": 7684,
      "##ionde": 7685,
      "arv": 7686,
      "##ståndet": 7687,
      "rättvist": 7688,
      "garantera": 7689,
      "lyft": 7690,
      "framträ": 7691,
      "statstjän": 7692,
      "utvärdering": 7693,
      "sla": 7694,
      "##flyg": 7695,
      "lösningen": 7696,
      "##sbrott": 7697,
      "##ehr": 7698,
      "EL": 7699,
      "TH": 7700,
      "propositionens": 7701,
      "Sp": 7702,
      "frakt": 7703,
      "otro": 7704,
      "värt": 7705,
      "##utinnan": 7706,
      "humanit": 7707,
      "##jänsten": 7708,
      "Utbildnings": 7709,
      "huv": 7710,
      "##sklass": 7711,
      "Förenta": 7712,
      "##företagen": 7713,
      "försörjning": 7714,
      "##nitt": 7715,
      "KU": 7716,
      "185": 7717,
      "##ENS": 7718,
      "återstående": 7719,
      "uttalar": 7720,
      "##gilt": 7721,
      "##ERS": 7722,
      "kampen": 7723,
      "Rune": 7724,
      "##INA": 7725,
      "medlemskap": 7726,
      "fiske": 7727,
      "typer": 7728,
      "socialstyrelsen": 7729,
      "Förslaget": 7730,
      "Bertil": 7731,
      "##to": 7732,
      "tillfälligt": 7733,
      "utöva": 7734,
      "finansiera": 7735,
      "oftast": 7736,
      "stre": 7737,
      "löst": 7738,
      "verktyg": 7739,
      "åberopade": 7740,
      "förhoppningen": 7741,
      "is": 7742,
      "huvudsakligen": 7743,
      "##OF": 7744,
      "##fartyg": 7745,
      "enkl": 7746,
      "##sökande": 7747,
      "sekret": 7748,
      "##fonden": 7749,
      "##fisk": 7750,
      "debatter": 7751,
      "uppfattningar": 7752,
      "koncentr": 7753,
      "omförmäl": 7754,
      "sss": 7755,
      "läste": 7756,
      "utgift": 7757,
      "tunga": 7758,
      "elev": 7759,
      "nått": 7760,
      "ledande": 7761,
      "##gjord": 7762,
      "tyska": 7763,
      "normala": 7764,
      "häraf": 7765,
      "##xid": 7766,
      "Några": 7767,
      "##stegring": 7768,
      "guld": 7769,
      "redovisat": 7770,
      "myndigheten": 7771,
      "dokument": 7772,
      "embets": 7773,
      "bedriver": 7774,
      "trott": 7775,
      "117": 7776,
      "##anderätten": 7777,
      "##edition": 7778,
      "tydligare": 7779,
      "##möjligheter": 7780,
      "domin": 7781,
      "##anslag": 7782,
      "##teks": 7783,
      "hov": 7784,
      "konvention": 7785,
      "RO": 7786,
      "oper": 7787,
      "##hället": 7788,
      "slutsatser": 7789,
      "gill": 7790,
      "##ktiva": 7791,
      "Härefter": 7792,
      "lef": 7793,
      "Öv": 7794,
      "rena": 7795,
      "rättigheterna": 7796,
      "olycksfall": 7797,
      "behofvet": 7798,
      "avvakta": 7799,
      "##bbl": 7800,
      "regioner": 7801,
      "augusti": 7802,
      "Något": 7803,
      "##handeln": 7804,
      "motiverat": 7805,
      "1942": 7806,
      "skattet": 7807,
      "##orium": 7808,
      "sinne": 7809,
      "telegraf": 7810,
      "##väsendets": 7811,
      "räcka": 7812,
      "##dire": 7813,
      "##produktionen": 7814,
      "jemväl": 7815,
      "1952": 7816,
      "Bil": 7817,
      "PER": 7818,
      "##vtal": 7819,
      "ävent": 7820,
      "##staur": 7821,
      "träffa": 7822,
      "##iat": 7823,
      "250": 7824,
      "utsk": 7825,
      "Ekman": 7826,
      "slop": 7827,
      "##ikal": 7828,
      "riktningen": 7829,
      "hindrar": 7830,
      "rus": 7831,
      "räntan": 7832,
      "##fund": 7833,
      "uppförande": 7834,
      "##jord": 7835,
      "##ifik": 7836,
      "förena": 7837,
      "##undervisning": 7838,
      "##sum": 7839,
      "odling": 7840,
      "förmögenhet": 7841,
      "anordning": 7842,
      "lönerna": 7843,
      "ordnande": 7844,
      "##medlen": 7845,
      "ordentligt": 7846,
      "fullgöra": 7847,
      "##atik": 7848,
      "118": 7849,
      "jemför": 7850,
      "bidragit": 7851,
      "##aten": 7852,
      "säges": 7853,
      "##allt": 7854,
      "slippa": 7855,
      "##drycker": 7856,
      "förändras": 7857,
      "repar": 7858,
      "städ": 7859,
      "åsikter": 7860,
      "Bengtsson": 7861,
      "##sförordningen": 7862,
      "##skam": 7863,
      "villkoren": 7864,
      "tjäna": 7865,
      "finansminister": 7866,
      "motivera": 7867,
      "iden": 7868,
      "Birgitta": 7869,
      "nykterhets": 7870,
      "—-": 7871,
      "##allningsha": 7872,
      "gavs": 7873,
      "##borgs": 7874,
      "Ste": 7875,
      "förank": 7876,
      "tyder": 7877,
      "krets": 7878,
      "##änta": 7879,
      "tolkning": 7880,
      "företagens": 7881,
      "provin": 7882,
      "##ställt": 7883,
      "Axel": 7884,
      "##ställas": 7885,
      "valkrets": 7886,
      "unionen": 7887,
      "##iden": 7888,
      "försum": 7889,
      "##skommissionen": 7890,
      "eftersträ": 7891,
      "##igas": 7892,
      "Europeiska": 7893,
      "##lev": 7894,
      "##fel": 7895,
      "1943": 7896,
      "isol": 7897,
      "lägsta": 7898,
      "förbe": 7899,
      "felaktigt": 7900,
      "korthet": 7901,
      "ägare": 7902,
      "frik": 7903,
      "påsk": 7904,
      "yrkandena": 7905,
      "Göteborgs": 7906,
      "##igter": 7907,
      "tidpunkten": 7908,
      "läkar": 7909,
      "inneburit": 7910,
      "utskottsutlåtandet": 7911,
      "Kron": 7912,
      "uttryckt": 7913,
      "##fves": 7914,
      "brottslighet": 7915,
      "##milj": 7916,
      "Såvitt": 7917,
      "kast": 7918,
      "Hedlund": 7919,
      "##astighet": 7920,
      "SI": 7921,
      "##utt": 7922,
      "garantier": 7923,
      "kvinna": 7924,
      "vägarna": 7925,
      "hysa": 7926,
      "##allningshafvande": 7927,
      "realis": 7928,
      "##utöver": 7929,
      "mine": 7930,
      "Umeå": 7931,
      "väcka": 7932,
      "aflöning": 7933,
      "bestämmelsen": 7934,
      "##tiden": 7935,
      "författning": 7936,
      "Norden": 7937,
      "deltagit": 7938,
      "Skäl": 7939,
      "1953": 7940,
      "amerikanska": 7941,
      "Mats": 7942,
      "##produ": 7943,
      "Ad": 7944,
      "sänk": 7945,
      "beto": 7946,
      "inskränkning": 7947,
      "svenskar": 7948,
      "##reser": 7949,
      "kompensation": 7950,
      "##oten": 7951,
      "moderna": 7952,
      "##väck": 7953,
      "tvifvel": 7954,
      "##jon": 7955,
      "starta": 7956,
      "affärs": 7957,
      "pekat": 7958,
      "tobaks": 7959,
      "Turk": 7960,
      "##ogram": 7961,
      "antagas": 7962,
      "Indust": 7963,
      "avsedda": 7964,
      "olyckligt": 7965,
      "AT": 7966,
      "möjliggöra": 7967,
      "Fal": 7968,
      "avlönings": 7969,
      "kärnkraften": 7970,
      "uppfyll": 7971,
      "förebygga": 7972,
      "Ma": 7973,
      "freds": 7974,
      "##likhet": 7975,
      "tecken": 7976,
      "pröfning": 7977,
      "##tade": 7978,
      "instruk": 7979,
      "121": 7980,
      "läggs": 7981,
      "180": 7982,
      "Wester": 7983,
      "levande": 7984,
      "omröstningsproposition": 7985,
      "smör": 7986,
      "sjukvårds": 7987,
      "konsumtion": 7988,
      "##sindustrin": 7989,
      "valfrihet": 7990,
      "tredjedel": 7991,
      "##mästare": 7992,
      "##brukare": 7993,
      "nådiga": 7994,
      "hufvudtit": 7995,
      "nack": 7996,
      "##sutredningen": 7997,
      "medgiva": 7998,
      "enskilt": 7999,
      "Ver": 8000,
      "##pend": 8001,
      "sönder": 8002,
      "inrätta": 8003,
      "förnuft": 8004,
      "befattning": 8005,
      "##båt": 8006,
      "visste": 8007,
      "##övd": 8008,
      "##RIST": 8009,
      "vidtagit": 8010,
      "##vanterna": 8011,
      "Pre": 8012,
      "##iger": 8013,
      "citer": 8014,
      "##delningar": 8015,
      "lagstiftnings": 8016,
      "exister": 8017,
      "ER": 8018,
      "bröd": 8019,
      "##värdigt": 8020,
      "aktiva": 8021,
      "##IKA": 8022,
      "betraktar": 8023,
      "skicka": 8024,
      "##sfrågan": 8025,
      "mandatperioden": 8026,
      "samråd": 8027,
      "##ötta": 8028,
      "##skande": 8029,
      "konsul": 8030,
      "kristen": 8031,
      "behag": 8032,
      "116": 8033,
      "##spri": 8034,
      "riksbankens": 8035,
      "Bevill": 8036,
      "seg": 8037,
      "Nat": 8038,
      "##dio": 8039,
      "förbis": 8040,
      "slutar": 8041,
      "förenk": 8042,
      "jobben": 8043,
      "nämner": 8044,
      "gerna": 8045,
      "Ericsson": 8046,
      "enklare": 8047,
      "##äste": 8048,
      "bedömer": 8049,
      "Nordiska": 8050,
      "##iddagen": 8051,
      "##rapp": 8052,
      "##kul": 8053,
      "situationer": 8054,
      "##sliv": 8055,
      "##sbel": 8056,
      "därifrån": 8057,
      "reflex": 8058,
      "BJÖR": 8059,
      "innebörd": 8060,
      "ark": 8061,
      "ändock": 8062,
      "Du": 8063,
      "##urs": 8064,
      "snabba": 8065,
      "135": 8066,
      "##enberg": 8067,
      "119": 8068,
      "allting": 8069,
      "122": 8070,
      "förklarats": 8071,
      "Anderson": 8072,
      "Daniel": 8073,
      "måst": 8074,
      "distrikt": 8075,
      "svarade": 8076,
      "Pehr": 8077,
      "finan": 8078,
      "Borås": 8079,
      "##--------": 8080,
      "vidtas": 8081,
      "välvill": 8082,
      "henne": 8083,
      "##passa": 8084,
      "budgetpropositionen": 8085,
      "ansågs": 8086,
      "räknas": 8087,
      "##börd": 8088,
      "Åter": 8089,
      "gruv": 8090,
      "konser": 8091,
      "kropp": 8092,
      "aktie": 8093,
      "##lle": 8094,
      "sky": 8095,
      "hvaraf": 8096,
      "begärda": 8097,
      "sanning": 8098,
      "127": 8099,
      "nedskär": 8100,
      "legat": 8101,
      "AL": 8102,
      "##iker": 8103,
      "brand": 8104,
      "föredragningsl": 8105,
      "instrument": 8106,
      "kvaliteten": 8107,
      "fonden": 8108,
      "föreläg": 8109,
      "förmed": 8110,
      "utgått": 8111,
      "Varje": 8112,
      "tunn": 8113,
      "anläggning": 8114,
      "statsminister": 8115,
      "##sindustri": 8116,
      "##slösheten": 8117,
      "vigtiga": 8118,
      "byggt": 8119,
      "##skilj": 8120,
      "##löst": 8121,
      "kamrar": 8122,
      "tillfällig": 8123,
      "plötsligt": 8124,
      "officer": 8125,
      "direktiven": 8126,
      "fulla": 8127,
      "##beskattningen": 8128,
      "##juter": 8129,
      "span": 8130,
      "##tell": 8131,
      "Se": 8132,
      "Jansson": 8133,
      "anty": 8134,
      "upplå": 8135,
      "Frånvarande": 8136,
      "inhemska": 8137,
      "tjänar": 8138,
      "##steuro": 8139,
      "##eget": 8140,
      "tankar": 8141,
      "##örda": 8142,
      "##skom": 8143,
      "##ifi": 8144,
      "##ströms": 8145,
      "Partivis": 8146,
      "landsh": 8147,
      "##export": 8148,
      "##ämpar": 8149,
      "ledighet": 8150,
      "Jac": 8151,
      "rekommenda": 8152,
      "faktiska": 8153,
      "förtid": 8154,
      "åtal": 8155,
      "1991": 8156,
      "Allmänpolitisk": 8157,
      "Hell": 8158,
      "##strafiken": 8159,
      "1954": 8160,
      "moder": 8161,
      "mitten": 8162,
      "upprepar": 8163,
      "skattesänkningar": 8164,
      "kyrko": 8165,
      "berört": 8166,
      "förbl": 8167,
      "någonstans": 8168,
      "##fabrik": 8169,
      "agerande": 8170,
      "##IE": 8171,
      "anmärkningsvärt": 8172,
      "##smateriel": 8173,
      "fallen": 8174,
      "hvarigenom": 8175,
      "skjuta": 8176,
      "hållning": 8177,
      "fanta": 8178,
      "centerpartiet": 8179,
      "tillika": 8180,
      "Kanske": 8181,
      "##ledning": 8182,
      "attit": 8183,
      "barnomsorg": 8184,
      "##äta": 8185,
      "##skick": 8186,
      "deltid": 8187,
      "bestämdt": 8188,
      "regionalpolitiska": 8189,
      "##vakt": 8190,
      "plock": 8191,
      "uppgörelse": 8192,
      "regelverk": 8193,
      "dep": 8194,
      "avskaffa": 8195,
      "bordet": 8196,
      "tillkommer": 8197,
      "kassa": 8198,
      "avsnitt": 8199,
      "förvaltningen": 8200,
      "Vårt": 8201,
      "avlämnade": 8202,
      "lönereglering": 8203,
      "barnbidrag": 8204,
      "orsaker": 8205,
      "kvan": 8206,
      "värderingar": 8207,
      "benäg": 8208,
      "vir": 8209,
      "tyst": 8210,
      "##huset": 8211,
      "##teringar": 8212,
      "orättvisa": 8213,
      "##alest": 8214,
      "##hälle": 8215,
      "motionärer": 8216,
      "befolknings": 8217,
      "##föreningen": 8218,
      "##svis": 8219,
      "upptagna": 8220,
      "kvinnors": 8221,
      "ordföranden": 8222,
      "förbättras": 8223,
      "##väckande": 8224,
      "##ektorn": 8225,
      "##ribu": 8226,
      "##skräck": 8227,
      "160": 8228,
      "##MANN": 8229,
      "förrätt": 8230,
      "##sbo": 8231,
      "skift": 8232,
      "beslutar": 8233,
      "##stin": 8234,
      "motsats": 8235,
      "Maria": 8236,
      "skador": 8237,
      "skrivelser": 8238,
      "uppfölj": 8239,
      "fördelningen": 8240,
      "användningen": 8241,
      "stadgande": 8242,
      "##domen": 8243,
      "bankerna": 8244,
      "afgörande": 8245,
      "##ortering": 8246,
      "##avtal": 8247,
      "undanröj": 8248,
      "Rätt": 8249,
      "##skass": 8250,
      "stycke": 8251,
      "vinner": 8252,
      "korrekt": 8253,
      "erfarenheten": 8254,
      "ansvariga": 8255,
      "kontrollera": 8256,
      "verksamhetsområde": 8257,
      "målsättning": 8258,
      "lita": 8259,
      "sidor": 8260,
      "Samma": 8261,
      "länsstyrelserna": 8262,
      "öfverläggningen": 8263,
      "##quist": 8264,
      "\".": 8265,
      "inkommit": 8266,
      "##gjorda": 8267,
      "socialdemokratin": 8268,
      "##usk": 8269,
      "##punkterna": 8270,
      "are": 8271,
      "kontrollen": 8272,
      "Jacob": 8273,
      "138": 8274,
      "avl": 8275,
      "##stiskt": 8276,
      "varom": 8277,
      "medge": 8278,
      "HAN": 8279,
      "Bevillnings": 8280,
      "fokus": 8281,
      "##ligande": 8282,
      "tryckfrihet": 8283,
      "erinrar": 8284,
      "##länder": 8285,
      "kontinu": 8286,
      "1920": 8287,
      "årens": 8288,
      "krona": 8289,
      "yrke": 8290,
      "finansdepartementet": 8291,
      "skattek": 8292,
      "passar": 8293,
      "legiti": 8294,
      "smula": 8295,
      "öfverensstämmelse": 8296,
      "natt": 8297,
      "borgerlig": 8298,
      "##ode": 8299,
      "Ahl": 8300,
      "element": 8301,
      "block": 8302,
      "1994": 8303,
      "##artade": 8304,
      "Led": 8305,
      "expans": 8306,
      "Västerbott": 8307,
      "likvärd": 8308,
      "128": 8309,
      "förändringen": 8310,
      "LUND": 8311,
      "invändningar": 8312,
      "institut": 8313,
      "##ometer": 8314,
      "##befolk": 8315,
      "våll": 8316,
      "motståndare": 8317,
      "##dagens": 8318,
      "##distrikt": 8319,
      "##penning": 8320,
      "någor": 8321,
      "gymnasieskolan": 8322,
      "123": 8323,
      "##varo": 8324,
      ".\"": 8325,
      "126": 8326,
      "##litt": 8327,
      "dö": 8328,
      "##imension": 8329,
      "kamrarna": 8330,
      "siffran": 8331,
      "124": 8332,
      "##post": 8333,
      "133": 8334,
      "valuta": 8335,
      "mag": 8336,
      "extrem": 8337,
      "mötes": 8338,
      "administrativa": 8339,
      "##amm": 8340,
      "läs": 8341,
      "##råket": 8342,
      "förmå": 8343,
      "##otal": 8344,
      "beredas": 8345,
      "sträv": 8346,
      "restaur": 8347,
      "Försäkring": 8348,
      "bana": 8349,
      "2021": 8350,
      "##rund": 8351,
      "Innan": 8352,
      "talarens": 8353,
      "skolöverstyrelsen": 8354,
      "anläggningar": 8355,
      "afgifna": 8356,
      "prognos": 8357,
      "överty": 8358,
      "förutom": 8359,
      "kräv": 8360,
      "Bohman": 8361,
      "Problemet": 8362,
      "##ias": 8363,
      "engelska": 8364,
      "Ola": 8365,
      "##ENG": 8366,
      "personligen": 8367,
      "##tiven": 8368,
      "välkom": 8369,
      "1961": 8370,
      "Må": 8371,
      "##vaka": 8372,
      "##alitet": 8373,
      "sommaren": 8374,
      "notera": 8375,
      "försvarets": 8376,
      "smitt": 8377,
      "kött": 8378,
      "##stör": 8379,
      "bekostnad": 8380,
      "nedan": 8381,
      "vinster": 8382,
      "samlad": 8383,
      "utredningens": 8384,
      "klok": 8385,
      "129": 8386,
      "##slagstiftningen": 8387,
      "1941": 8388,
      "##teckning": 8389,
      "ålig": 8390,
      "överst": 8391,
      "högskolor": 8392,
      "uppgifterna": 8393,
      "flygplats": 8394,
      "utformas": 8395,
      "höstas": 8396,
      "##årig": 8397,
      "frivillig": 8398,
      "LÖ": 8399,
      "önskat": 8400,
      "formulering": 8401,
      "##EI": 8402,
      "mannen": 8403,
      "teknisk": 8404,
      "sammanträdde": 8405,
      "sä": 8406,
      "ideella": 8407,
      "glömma": 8408,
      "app": 8409,
      "förekommande": 8410,
      "effektivare": 8411,
      "interpellanten": 8412,
      "##ängden": 8413,
      "Riksbanken": 8414,
      "SA": 8415,
      "##ors": 8416,
      "##ndag": 8417,
      "grundskolan": 8418,
      "någorlunda": 8419,
      "förre": 8420,
      "högskole": 8421,
      "Sträng": 8422,
      "132": 8423,
      "utgångspunkter": 8424,
      "Pa": 8425,
      "##pning": 8426,
      "##mod": 8427,
      "otroligt": 8428,
      "##händer": 8429,
      "##försvaret": 8430,
      "Arne": 8431,
      "Vattenfall": 8432,
      "näringslivets": 8433,
      "Bank": 8434,
      "uppb": 8435,
      "##tligen": 8436,
      "##rot": 8437,
      "fullfölja": 8438,
      "främjande": 8439,
      "förhöjning": 8440,
      "tillhanda": 8441,
      "beakta": 8442,
      "Östersjön": 8443,
      "inverkan": 8444,
      "ANDERS": 8445,
      "ink": 8446,
      "anklag": 8447,
      "underligt": 8448,
      "förhoppningar": 8449,
      "##ötas": 8450,
      "slagit": 8451,
      "medborgar": 8452,
      "##ORG": 8453,
      "uppskov": 8454,
      "upprepade": 8455,
      "idéer": 8456,
      "barnens": 8457,
      "##ela": 8458,
      "sjukförsäkringen": 8459,
      "byråkra": 8460,
      "demon": 8461,
      "storstad": 8462,
      "vak": 8463,
      "samarbets": 8464,
      "Utlåt": 8465,
      "##institutet": 8466,
      "marin": 8467,
      "lastbil": 8468,
      "GUSTA": 8469,
      "##pt": 8470,
      "förluster": 8471,
      "skräm": 8472,
      "rehabilitering": 8473,
      "##anschen": 8474,
      "tilläggsstat": 8475,
      "##inne": 8476,
      "bestämmande": 8477,
      "övergripande": 8478,
      "2001": 8479,
      "##jour": 8480,
      "ungdomen": 8481,
      "##ura": 8482,
      "hållit": 8483,
      "##sbal": 8484,
      "##sbeskatt": 8485,
      "bedömningar": 8486,
      "##lytt": 8487,
      "Anledningen": 8488,
      "##hållas": 8489,
      "##folk": 8490,
      "Dagens": 8491,
      "Ulla": 8492,
      "dragit": 8493,
      "sutt": 8494,
      "##gårds": 8495,
      "##jupa": 8496,
      "NOR": 8497,
      "tidnings": 8498,
      "optim": 8499,
      "##slagstiftning": 8500,
      "lågt": 8501,
      "Väg": 8502,
      "##nadt": 8503,
      "##skonfer": 8504,
      "strävan": 8505,
      "omfattas": 8506,
      "##kare": 8507,
      "##obil": 8508,
      "NILSSON": 8509,
      "läroverken": 8510,
      "sc": 8511,
      "regleringen": 8512,
      "använt": 8513,
      "gift": 8514,
      "kvinnliga": 8515,
      "valde": 8516,
      "institutet": 8517,
      "##rådets": 8518,
      "beviljades": 8519,
      "##oman": 8520,
      "bedrivs": 8521,
      "förete": 8522,
      "##oth": 8523,
      "sakkunskap": 8524,
      "utskottsmajoritetens": 8525,
      "förbi": 8526,
      "##råds": 8527,
      "##emed": 8528,
      "aktuell": 8529,
      "Alf": 8530,
      "1944": 8531,
      "projektet": 8532,
      "riktade": 8533,
      "gångna": 8534,
      "131": 8535,
      "utdrag": 8536,
      "kronans": 8537,
      "Sådana": 8538,
      "##kommun": 8539,
      "konflikter": 8540,
      "##flöd": 8541,
      "Bäck": 8542,
      "varefter": 8543,
      "linjer": 8544,
      "finansiella": 8545,
      "otv": 8546,
      "Karlskrona": 8547,
      "Lindman": 8548,
      "##priset": 8549,
      "Palme": 8550,
      "Således": 8551,
      "effektivis": 8552,
      "##farts": 8553,
      "dug": 8554,
      "diskriminering": 8555,
      "##åner": 8556,
      "##sban": 8557,
      "Ha": 8558,
      "fordra": 8559,
      "nio": 8560,
      "##demokrater": 8561,
      "återfin": 8562,
      "flexi": 8563,
      "kongl": 8564,
      "Turkiet": 8565,
      "argumenter": 8566,
      "göres": 8567,
      "överläggningar": 8568,
      "underka": 8569,
      "formella": 8570,
      "områdena": 8571,
      "##entliga": 8572,
      "yttersta": 8573,
      "Rolf": 8574,
      "kilogram": 8575,
      "armén": 8576,
      "Margareta": 8577,
      "1918": 8578,
      "##kastning": 8579,
      "lagts": 8580,
      "familjen": 8581,
      "rev": 8582,
      "försvinner": 8583,
      "skogar": 8584,
      "månaden": 8585,
      "anhör": 8586,
      "##tv": 8587,
      "##ps": 8588,
      "processen": 8589,
      "påbörj": 8590,
      "delarna": 8591,
      "uttryckte": 8592,
      "låna": 8593,
      "sammanlagt": 8594,
      "effekterna": 8595,
      "##pris": 8596,
      "bleve": 8597,
      "vilkas": 8598,
      "##kammar": 8599,
      "2010": 8600,
      "##ycke": 8601,
      "##EF": 8602,
      "handlade": 8603,
      "prester": 8604,
      "Riksg": 8605,
      "##skrifter": 8606,
      "##önster": 8607,
      "##otta": 8608,
      "136": 8609,
      "omorganisation": 8610,
      "##flyttning": 8611,
      "hårdare": 8612,
      "fingo": 8613,
      "regeringar": 8614,
      "samlingspartiet": 8615,
      "Ur": 8616,
      "åtnjutande": 8617,
      "##tagna": 8618,
      "##skydds": 8619,
      "##shem": 8620,
      "begreppet": 8621,
      "##inda": 8622,
      "indust": 8623,
      "##ändt": 8624,
      "1938": 8625,
      "##örjnings": 8626,
      "godkända": 8627,
      "##sland": 8628,
      "##berättig": 8629,
      "förväg": 8630,
      "decenn": 8631,
      "sedlar": 8632,
      "Hjalmar": 8633,
      "##dioxid": 8634,
      "vardag": 8635,
      "beaktas": 8636,
      "##bestämmelser": 8637,
      "framkall": 8638,
      "banken": 8639,
      "ägde": 8640,
      "kända": 8641,
      "145": 8642,
      "film": 8643,
      "dan": 8644,
      "##redning": 8645,
      "##grunden": 8646,
      "formen": 8647,
      "kvarstår": 8648,
      "##befäl": 8649,
      "hekt": 8650,
      "mör": 8651,
      "##sprincipen": 8652,
      "topp": 8653,
      "dispon": 8654,
      "##alag": 8655,
      "##mässigt": 8656,
      "förbättrad": 8657,
      "spec": 8658,
      "når": 8659,
      "##leks": 8660,
      "PR": 8661,
      "siffrorna": 8662,
      "##taget": 8663,
      "skadestånd": 8664,
      "justitiedepartementet": 8665,
      "intrycket": 8666,
      "halvår": 8667,
      "motionärernas": 8668,
      "löser": 8669,
      "världs": 8670,
      "##lidne": 8671,
      "statsfinansi": 8672,
      "kds": 8673,
      "tjenstemän": 8674,
      "farhågor": 8675,
      "##ila": 8676,
      "behövde": 8677,
      "kollektivavtal": 8678,
      "BENG": 8679,
      "omöjlig": 8680,
      "##nandet": 8681,
      "BENGT": 8682,
      "##ssek": 8683,
      "järnvägen": 8684,
      "##material": 8685,
      "drivit": 8686,
      "##skottet": 8687,
      "##sverksamhet": 8688,
      "vattenkraft": 8689,
      "förse": 8690,
      "infört": 8691,
      "studenter": 8692,
      "##tson": 8693,
      "##göras": 8694,
      "Finansministern": 8695,
      "##sbehov": 8696,
      "##splanen": 8697,
      "prata": 8698,
      "2018": 8699,
      "permanent": 8700,
      "minns": 8701,
      "ifrågasätta": 8702,
      "drog": 8703,
      "1999": 8704,
      "##beloppet": 8705,
      "landsbygd": 8706,
      "Åke": 8707,
      "medicinal": 8708,
      "olämpligt": 8709,
      "utmaningar": 8710,
      "##stadgan": 8711,
      "137": 8712,
      "täcka": 8713,
      "befrielse": 8714,
      "Rad": 8715,
      "kommunisterna": 8716,
      "klarhet": 8717,
      "angelägenheter": 8718,
      "sades": 8719,
      "2019": 8720,
      "##ata": 8721,
      "successivt": 8722,
      "anpassa": 8723,
      "levnad": 8724,
      "##inspektionen": 8725,
      "redogj": 8726,
      "motionärens": 8727,
      "väntat": 8728,
      "##pråk": 8729,
      "påvis": 8730,
      "rika": 8731,
      "##ygger": 8732,
      "förstärka": 8733,
      "medgifva": 8734,
      "Tob": 8735,
      "sjuksköter": 8736,
      "knappt": 8737,
      "##verkning": 8738,
      "##reterare": 8739,
      "##derar": 8740,
      "##sbudget": 8741,
      "danska": 8742,
      "BR": 8743,
      "inkomsterna": 8744,
      "tillgången": 8745,
      "försöksverksamhet": 8746,
      "ansvars": 8747,
      "tillgodoses": 8748,
      "levnads": 8749,
      "ändrat": 8750,
      "obligatorisk": 8751,
      "nett": 8752,
      "Sydaf": 8753,
      "##brän": 8754,
      "##sbeg": 8755,
      "stadga": 8756,
      "lokalt": 8757,
      "belysa": 8758,
      "Ordet": 8759,
      "demokratisk": 8760,
      "##ågan": 8761,
      "##lamation": 8762,
      "uttryckligen": 8763,
      "##statens": 8764,
      "skiljaktiga": 8765,
      "##vetenskap": 8766,
      "upphandling": 8767,
      "Får": 8768,
      "##barn": 8769,
      "parlamentarisk": 8770,
      "reserverat": 8771,
      "Herman": 8772,
      "normalt": 8773,
      "resul": 8774,
      "därunder": 8775,
      "ägnat": 8776,
      "medelstora": 8777,
      "differ": 8778,
      "världskrig": 8779,
      "KARL": 8780,
      "vidtagits": 8781,
      "åberopande": 8782,
      "900": 8783,
      "##älla": 8784,
      "##sering": 8785,
      "beskattnings": 8786,
      "seminari": 8787,
      "Icke": 8788,
      "##förbud": 8789,
      "##äkter": 8790,
      "personlig": 8791,
      "Polis": 8792,
      "splitt": 8793,
      "konstaterade": 8794,
      "Kristian": 8795,
      "hvarken": 8796,
      "tillkom": 8797,
      "nykterhet": 8798,
      "oaktadt": 8799,
      "##arbetarna": 8800,
      "##tet": 8801,
      "talats": 8802,
      "##VA": 8803,
      "station": 8804,
      "beredning": 8805,
      "tvist": 8806,
      "vinnas": 8807,
      "hörande": 8808,
      "##sperioden": 8809,
      "1998": 8810,
      "Christ": 8811,
      "##uell": 8812,
      "konkurrera": 8813,
      "medicinska": 8814,
      "##omålen": 8815,
      "beredande": 8816,
      "ställningstag": 8817,
      "lyssnar": 8818,
      "lämnats": 8819,
      "Regeringskansliet": 8820,
      "ordnas": 8821,
      "effektivitet": 8822,
      "##opera": 8823,
      "Självfallet": 8824,
      "perioden": 8825,
      "föranlett": 8826,
      "ärendena": 8827,
      "genomfört": 8828,
      "införandet": 8829,
      "dagarna": 8830,
      "vits": 8831,
      "kommunens": 8832,
      "##ccin": 8833,
      "##rats": 8834,
      "utgjorde": 8835,
      "breda": 8836,
      "godo": 8837,
      "ämnar": 8838,
      "1928": 8839,
      "hust": 8840,
      "acklamation": 8841,
      "tjug": 8842,
      "##estad": 8843,
      "regement": 8844,
      "rapporten": 8845,
      "invandrare": 8846,
      "##seff": 8847,
      "ökningen": 8848,
      "lyckligt": 8849,
      "insatserna": 8850,
      "angrepp": 8851,
      "biträd": 8852,
      "inno": 8853,
      "##odling": 8854,
      "sparande": 8855,
      "##växt": 8856,
      "fullfölj": 8857,
      "karakter": 8858,
      "pensioner": 8859,
      "##fart": 8860,
      "befinna": 8861,
      "Lundgren": 8862,
      "ofvan": 8863,
      "##skatta": 8864,
      "inspek": 8865,
      "##atiken": 8866,
      "##ler": 8867,
      "passa": 8868,
      "ansökningar": 8869,
      "##stämmande": 8870,
      "1914": 8871,
      "##domstol": 8872,
      "decentral": 8873,
      "kamp": 8874,
      "ansträngningar": 8875,
      "kontraproposition": 8876,
      "##spen": 8877,
      "författnings": 8878,
      "ansvarig": 8879,
      "strand": 8880,
      "##ele": 8881,
      "##mmer": 8882,
      "##olution": 8883,
      "smär": 8884,
      "##vets": 8885,
      "inten": 8886,
      "eld": 8887,
      "buss": 8888,
      "134": 8889,
      "hufvudsakligen": 8890,
      "livs": 8891,
      "observer": 8892,
      "##avgiften": 8893,
      "åtgärden": 8894,
      "innehålla": 8895,
      "konstnär": 8896,
      "1992": 8897,
      "kre": 8898,
      "##fvar": 8899,
      "utskottsbetänkandet": 8900,
      "hjel": 8901,
      "vatt": 8902,
      "##arnes": 8903,
      "minuter": 8904,
      "##utredning": 8905,
      "förordat": 8906,
      "förorda": 8907,
      "##rätter": 8908,
      "Ulf": 8909,
      "landstings": 8910,
      "släppa": 8911,
      "kände": 8912,
      "diskuterats": 8913,
      "användes": 8914,
      "##anns": 8915,
      "suttit": 8916,
      "##unde": 8917,
      "borta": 8918,
      "valrörelsen": 8919,
      "Vem": 8920,
      "sökande": 8921,
      "##prö": 8922,
      "våras": 8923,
      "stigit": 8924,
      "önskade": 8925,
      "Marie": 8926,
      "stäng": 8927,
      "utbildningsministern": 8928,
      "##läst": 8929,
      "årliga": 8930,
      "##svall": 8931,
      "##förmåga": 8932,
      "Ener": 8933,
      "inkomsten": 8934,
      "betydelsefulla": 8935,
      "Kamrar": 8936,
      "indirekt": 8937,
      "ojäm": 8938,
      "underd": 8939,
      "antagit": 8940,
      "förneka": 8941,
      "##shöj": 8942,
      "##sförbund": 8943,
      "##län": 8944,
      "##projekt": 8945,
      "jour": 8946,
      "##QVIST": 8947,
      "Försvarsmakten": 8948,
      "arbetsuppgifter": 8949,
      ".............": 8950,
      "skoll": 8951,
      "1937": 8952,
      "grundlags": 8953,
      "insikt": 8954,
      "förberedande": 8955,
      "diskuterade": 8956,
      "obetydlig": 8957,
[...]
